{
  "version": "1.0",
  "truncation": null,
  "padding": null,
  "added_tokens": [
    {
      "id": 0,
      "content": "[UNK]",
      "single_word": false,
      "lstrip": false,
      "rstrip": false,
      "normalized": false,
      "special": true
    },
    {
      "id": 1,
      "content": "[CLS]",
      "single_word": false,
      "lstrip": false,
      "rstrip": false,
      "normalized": false,
      "special": true
    },
    {
      "id": 2,
      "content": "[SEP]",
      "single_word": false,
      "lstrip": false,
      "rstrip": false,
      "normalized": false,
      "special": true
    },
    {
      "id": 3,
      "content": "[PAD]",
      "single_word": false,
      "lstrip": false,
      "rstrip": false,
      "normalized": false,
      "special": true
    },
    {
      "id": 4,
      "content": "[MASK]",
      "single_word": false,
      "lstrip": false,
      "rstrip": false,
      "normalized": false,
      "special": true
    }
  ],
  "normalizer": null,
  "pre_tokenizer": {
    "type": "Sequence",
    "pretokenizers": [
      {
        "type": "Whitespace"
      },
      {
        "type": "CharDelimiterSplit",
        "delimiter": "-"
      }
    ]
  },
  "post_processor": null,
  "decoder": null,
  "model": {
    "type": "BPE",
    "dropout": null,
    "unk_token": "[UNK]",
    "continuing_subword_prefix": null,
    "end_of_word_suffix": null,
    "fuse_unk": false,
    "vocab": {
      "[UNK]": 0,
      "[CLS]": 1,
      "[SEP]": 2,
      "[PAD]": 3,
      "[MASK]": 4,
      "!": 5,
      "'": 6,
      "(": 7,
      ")": 8,
      ",": 9,
      ".": 10,
      "/": 11,
      "0": 12,
      "1": 13,
      "2": 14,
      "3": 15,
      "4": 16,
      "5": 17,
      "6": 18,
      "7": 19,
      "8": 20,
      "9": 21,
      ":": 22,
      ";": 23,
      "=": 24,
      "?": 25,
      "A": 26,
      "B": 27,
      "C": 28,
      "D": 29,
      "E": 30,
      "G": 31,
      "H": 32,
      "I": 33,
      "J": 34,
      "K": 35,
      "L": 36,
      "M": 37,
      "N": 38,
      "O": 39,
      "P": 40,
      "R": 41,
      "S": 42,
      "T": 43,
      "U": 44,
      "W": 45,
      "X": 46,
      "Z": 47,
      "[": 48,
      "]": 49,
      "a": 50,
      "b": 51,
      "c": 52,
      "e": 53,
      "g": 54,
      "h": 55,
      "i": 56,
      "j": 57,
      "k": 58,
      "l": 59,
      "m": 60,
      "n": 61,
      "o": 62,
      "p": 63,
      "r": 64,
      "s": 65,
      "t": 66,
      "u": 67,
      "y": 68,
      "~": 69,
      "À": 70,
      "Á": 71,
      "Â": 72,
      "Ê": 73,
      "Ì": 74,
      "Í": 75,
      "Î": 76,
      "Ò": 77,
      "Ó": 78,
      "Ô": 79,
      "Ù": 80,
      "Ú": 81,
      "à": 82,
      "á": 83,
      "â": 84,
      "è": 85,
      "é": 86,
      "ê": 87,
      "ì": 88,
      "í": 89,
      "î": 90,
      "ò": 91,
      "ó": 92,
      "ô": 93,
      "ù": 94,
      "ú": 95,
      "û": 96,
      "Ā": 97,
      "ā": 98,
      "Ē": 99,
      "ē": 100,
      "Ī": 101,
      "ī": 102,
      "ń": 103,
      "ō": 104,
      "Ū": 105,
      "ū": 106,
      "Ǹ": 107,
      "ǹ": 108,
      "̂": 109,
      "̄": 110,
      "̍": 111,
      "͘": 112,
      "Α": 113,
      "Β": 114,
      "Ι": 115,
      "Μ": 116,
      "Ν": 117,
      "Τ": 118,
      "Ω": 119,
      "ḿ": 120,
      "—": 121,
      "“": 122,
      "•": 123,
      "ⁿ": 124,
      "、": 125,
      "「": 126,
      "」": 127,
      "乞": 128,
      "合": 129,
      "執": 130,
      "奈": 131,
      "挺": 132,
      "松": 133,
      "果": 134,
      "枯": 135,
      "棑": 136,
      "機": 137,
      "產": 138,
      "白": 139,
      "艾": 140,
      "蘇": 141,
      "螺": 142,
      "計": 143,
      "議": 144,
      "鄉": 145,
      "險": 146,
      "香": 147,
      "（": 148,
      "）": 149,
      "，": 150,
      "：": 151,
      "ts": 152,
      "ng": 153,
      "tsi": 154,
      "hi": 155,
      "lâ": 156,
      "si": 157,
      "hu": 158,
      "̍h": 159,
      "ti": 160,
      "ah": 161,
      "uá": 162,
      "kh": 163,
      "ki": 164,
      "óng": 165,
      "o̍h": 166,
      "lâng": 167,
      "lí": 168,
      "̍t": 169,
      "ōng": 170,
      "tī": 171,
      "ó͘": 172,
      "Si": 173,
      "tu": 174,
      "th": 175,
      "sī": 176,
      "in": 177,
      "tio̍h": 178,
      "tshi": 179,
      "Siōng": 180,
      "ō͘": 181,
      "guá": 182,
      "lâi": 183,
      "̍k": 184,
      "kóng": 185,
      "nn": 186,
      "kah": 187,
      "eh": 188,
      "su": 189,
      "kā": 190,
      "tsú": 191,
      "àu": 192,
      "khì": 193,
      "āi": 194,
      "ko": 195,
      "hō͘": 196,
      "án": 197,
      "só͘": 198,
      "Lí": 199,
      "tsò": 200,
      "ka": 201,
      "îng": 202,
      "khu": 203,
      "uī": 204,
      "Guá": 205,
      "Siōngtsú": 206,
      "aⁿ": 207,
      "ku": 208,
      "bô": 209,
      "în": 210,
      "tsh": 211,
      "tsiū": 212,
      "ân": 213,
      "li": 214,
      "tuì": 215,
      "tshu": 216,
      "̍p": 217,
      "lín": 218,
      "at": 219,
      "áⁿ": 220,
      "ong": 221,
      "o̍k": 222,
      "ji": 223,
      "ông": 224,
      "a̍h": 225,
      "īng": 226,
      "tsu": 227,
      "ān": 228,
      "ang": 229,
      "koh": 230,
      "âⁿ": 231,
      "beh": 232,
      "an": 233,
      "àn": 234,
      "tè": 235,
      "àⁿ": 236,
      "áu": 237,
      "mā": 238,
      "Siōngtè": 239,
      "kàu": 240,
      "tsa": 241,
      "ìng": 242,
      "thi": 243,
      "a̍t": 244,
      "mi": 245,
      "tsi̍t": 246,
      "m̄": 247,
      "el": 248,
      "Ts": 249,
      "lóng": 250,
      "īn": 251,
      "ph": 252,
      "siū": 253,
      "ô͘": 254,
      "ok": 255,
      "la": 256,
      "tē": 257,
      "thang": 258,
      "bi": 259,
      "ài": 260,
      "kiáⁿ": 261,
      "íng": 262,
      "In": 263,
      "sî": 264,
      "āu": 265,
      "pi": 266,
      "tshut": 267,
      "uē": 268,
      "thâ": 269,
      "tsiah": 270,
      "bīn": 271,
      "hit": 272,
      "it": 273,
      "tshiū": 274,
      "tiong": 275,
      "ne": 276,
      "ái": 277,
      "gi": 278,
      "tsit": 279,
      "ji̍t": 280,
      "ám": 281,
      "khí": 282,
      "khuàⁿ": 283,
      "tsì": 284,
      "Isu": 285,
      "lael": 286,
      "Isulael": 287,
      "tsîng": 288,
      "tuā": 289,
      "tāi": 290,
      "bîn": 291,
      "a̍k": 292,
      "tshin": 293,
      "sí": 294,
      "hia": 295,
      "to̍h": 296,
      "gu": 297,
      "thâu": 298,
      "ò͘": 299,
      "nā": 300,
      "tsāi": 301,
      "kan": 302,
      "tsè": 303,
      "iû": 304,
      "tit": 305,
      "sì": 306,
      "lī": 307,
      "̄g": 308,
      "sim": 309,
      "teh": 310,
      "tshiú": 311,
      "jîn": 312,
      "ûn": 313,
      "mi̍h": 314,
      "tshiūnn": 315,
      "Ié": 316,
      "sa": 317,
      "Iésu": 318,
      "se": 319,
      "lāi": 320,
      "guán": 321,
      "ín": 322,
      "hiah": 323,
      "king": 324,
      "òng": 325,
      "àng": 326,
      "bē": 327,
      "khi": 328,
      "Iô": 329,
      "Lín": 330,
      "̂g": 331,
      "n̂g": 332,
      "huat": 333,
      "pu": 334,
      "tsiàu": 335,
      "àm": 336,
      "tsin": 337,
      "siú": 338,
      "siâⁿ": 339,
      "tsai": 340,
      "tuà": 341,
      "kì": 342,
      "thiaⁿ": 343,
      "hué": 344,
      "kī": 345,
      "lô": 346,
      "oh": 347,
      "tsē": 348,
      "tsí": 349,
      "ūn": 350,
      "lo̍h": 351,
      "tsuē": 352,
      "hó": 353,
      "âng": 354,
      "ap": 355,
      "e̍h": 356,
      "kuè": 357,
      "kha": 358,
      "ńg": 359,
      "bó͘": 360,
      "tsia̍h": 361,
      "kok": 362,
      "lō͘": 363,
      "uán": 364,
      "lán": 365,
      "ânn": 366,
      "kám": 367,
      "āng": 368,
      "ann": 369,
      "tsa̍p": 370,
      "khui": 371,
      "Ki": 372,
      "ni": 373,
      "tsìng": 374,
      "sù": 375,
      "āⁿ": 376,
      "ǹg": 377,
      "ām": 378,
      "tó": 379,
      "siáⁿ": 380,
      "sè": 381,
      "Ta": 382,
      "kau": 383,
      "bi̍t": 384,
      "ua̍h": 385,
      "ún": 386,
      "tńg": 387,
      "saⁿ": 388,
      "ke": 389,
      "o͘": 390,
      "au": 391,
      "pîng": 392,
      "tíng": 393,
      "kî": 394,
      "pē": 395,
      "ànn": 396,
      "suaⁿ": 397,
      "âi": 398,
      "phu": 399,
      "Tsi": 400,
      "kuân": 401,
      "sio": 402,
      "ná": 403,
      "kiû": 404,
      "miâ": 405,
      "sìng": 406,
      "n̄g": 407,
      "bu": 408,
      "Tabi̍t": 409,
      "kiânn": 410,
      "iah": 411,
      "kong": 412,
      "tì": 413,
      "Mô͘": 414,
      "kiâⁿ": 415,
      "tshing": 416,
      "iûⁿ": 417,
      "guā": 418,
      "tshe": 419,
      "lô͘": 420,
      "tah": 421,
      "ta̍k": 422,
      "bú": 423,
      "bat": 424,
      "kng": 425,
      "ji̍p": 426,
      "tàng": 427,
      "lú": 428,
      "kiò": 429,
      "Io": 430,
      "lāu": 431,
      "sîn": 432,
      "uáⁿ": 433,
      "sin": 434,
      "tshù": 435,
      "sū": 436,
      "sian": 437,
      "mn̂g": 438,
      "nn̄g": 439,
      "áiⁿ": 440,
      "lông": 441,
      "hiàn": 442,
      "khuànn": 443,
      "Tsú": 444,
      "bîng": 445,
      "am": 446,
      "po̍k": 447,
      "tsuí": 448,
      "tshuā": 449,
      "sìn": 450,
      "Hit": 451,
      "Só͘": 452,
      "si̍t": 453,
      "Iôtah": 454,
      "ìn": 455,
      "tsuân": 456,
      "îm": 457,
      "sing": 458,
      "tso̍k": 459,
      "kiàn": 460,
      "khuán": 461,
      "tiān": 462,
      "kun": 463,
      "kui": 464,
      "thu": 465,
      "kiù": 466,
      "kang": 467,
      "liân": 468,
      "pháiⁿ": 469,
      "hí": 470,
      "uî": 471,
      "nî": 472,
      "Mô͘se": 473,
      "Hu": 474,
      "ni̍h": 475,
      "tiú": 476,
      "tsiūⁿ": 477,
      "kiaⁿ": 478,
      "sio̍k": 479,
      "bān": 480,
      "tok": 481,
      "èm": 482,
      "lu": 483,
      "iáu": 484,
      "jiân": 485,
      "seⁿ": 486,
      "ho̍k": 487,
      "tīng": 488,
      "Ai": 489,
      "phah": 490,
      "tsō": 491,
      "al": 492,
      "huē": 493,
      "to": 494,
      "gī": 495,
      "sal": 496,
      "tiāⁿ": 497,
      "tshuì": 498,
      "bia̍t": 499,
      "Êlú": 500,
      "salèm": 501,
      "Êlúsalèm": 502,
      "bīng": 503,
      "liáu": 504,
      "thâi": 505,
      "jī": 506,
      "âu": 507,
      "to̍k": 508,
      "ak": 509,
      "siōng": 510,
      "a̍p": 511,
      "hok": 512,
      "tshè": 513,
      "lia̍t": 514,
      "tsó͘": 515,
      "gi̍p": 516,
      "Aigi̍p": 517,
      "lîng": 518,
      "līng": 519,
      "ki̍p": 520,
      "khah": 521,
      "bián": 522,
      "iá": 523,
      "ló": 524,
      "tú": 525,
      "huann": 526,
      "hē": 527,
      "kò͘": 528,
      "ba̍k": 529,
      "Tse": 530,
      "thiⁿ": 531,
      "gia̍h": 532,
      "khiā": 533,
      "hô": 534,
      "lia̍h": 535,
      "M̄": 536,
      "tô͘": 537,
      "khó͘": 538,
      "hong": 539,
      "uì": 540,
      "tsun": 541,
      "sun": 542,
      "lé": 543,
      "hūn": 544,
      "kik": 545,
      "kim": 546,
      "kè": 547,
      "ti̍t": 548,
      "li̍p": 549,
      "áng": 550,
      "tshit": 551,
      "un": 552,
      "tse": 553,
      "sé": 554,
      "siu": 555,
      "miā": 556,
      "lâu": 557,
      "tsóng": 558,
      "piⁿ": 559,
      "tiúⁿ": 560,
      "pang": 561,
      "tsiap": 562,
      "pó": 563,
      "hù": 564,
      "má": 565,
      "Ba": 566,
      "tsio̍h": 567,
      "im": 568,
      "ti̍k": 569,
      "tsū": 570,
      "gû": 571,
      "tsáu": 572,
      "Tsóng": 573,
      "lu̍t": 574,
      "sit": 575,
      "muá": 576,
      "Ti": 577,
      "gō͘": 578,
      "huān": 579,
      "kài": 580,
      "pī": 581,
      "kin": 582,
      "siàu": 583,
      "sîng": 584,
      "siaⁿ": 585,
      "tuâⁿ": 586,
      "Tsit": 587,
      "ai": 588,
      "pò͘": 589,
      "siat": 590,
      "taⁿ": 591,
      "kíng": 592,
      "lâm": 593,
      "hiann": 594,
      "pún": 595,
      "iâⁿ": 596,
      "tô": 597,
      "sik": 598,
      "tsiàn": 599,
      "the̍h": 600,
      "lîm": 601,
      "tsiù": 602,
      "sán": 603,
      "tò": 604,
      "hîng": 605,
      "lah": 606,
      "tsing": 607,
      "ùn": 608,
      "siúⁿ": 609,
      "kuáⁿ": 610,
      "Tī": 611,
      "tshuē": 612,
      "kìng": 613,
      "ánn": 614,
      "tsún": 615,
      "siong": 616,
      "iok": 617,
      "pí": 618,
      "bī": 619,
      "huī": 620,
      "mn̄g": 621,
      "Hi": 622,
      "huan": 623,
      "tsá": 624,
      "siūⁿ": 625,
      "tsiòng": 626,
      "phuàⁿ": 627,
      "gîn": 628,
      "kûn": 629,
      "Guán": 630,
      "tsiu": 631,
      "thiàⁿ": 632,
      "Koh": 633,
      "móng": 634,
      "tsia": 635,
      "kiat": 636,
      "thinn": 637,
      "hāi": 638,
      "tuè": 639,
      "hun": 640,
      "Tio̍h": 641,
      "pê": 642,
      "bāng": 643,
      "hō": 644,
      "la̍h": 645,
      "tâng": 646,
      "tsuáⁿ": 647,
      "khang": 648,
      "Iâ": 649,
      "tsiá": 650,
      "huí": 651,
      "tshun": 652,
      "Tsiū": 653,
      "Sàu": 654,
      "bé": 655,
      "lūn": 656,
      "pah": 657,
      "tsiâⁿ": 658,
      "leh": 659,
      "Sàulô": 660,
      "lim": 661,
      "lē": 662,
      "káng": 663,
      "hái": 664,
      "kop": 665,
      "Iâkop": 666,
      "pò": 667,
      "gia̍p": 668,
      "guân": 669,
      "kà": 670,
      "Am": 671,
      "sak": 672,
      "tû": 673,
      "thuân": 674,
      "Thi": 675,
      "tsiú": 676,
      "uⁿ": 677,
      "khò": 678,
      "piàn": 679,
      "kái": 680,
      "siann": 681,
      "iân": 682,
      "hng": 683,
      "khùn": 684,
      "bah": 685,
      "tsûn": 686,
      "tsi̍p": 687,
      "tiâu": 688,
      "kuí": 689,
      "tsài": 690,
      "hū": 691,
      "sāi": 692,
      "kuán": 693,
      "Gu": 694,
      "âm": 695,
      "khòng": 696,
      "guān": 697,
      "tāng": 698,
      "Taⁿ": 699,
      "kháu": 700,
      "suî": 701,
      "īⁿ": 702,
      "hueh": 703,
      "pak": 704,
      "bûn": 705,
      "té": 706,
      "Hui": 707,
      "jî": 708,
      "jio̍k": 709,
      "li̍k": 710,
      "put": 711,
      "kín": 712,
      "thāi": 713,
      "khak": 714,
      "bō͘": 715,
      "pàng": 716,
      "gín": 717,
      "ping": 718,
      "búlông": 719,
      "hāng": 720,
      "kò": 721,
      "tha": 722,
      "kìnn": 723,
      "Guān": 724,
      "kak": 725,
      "ta": 726,
      "siā": 727,
      "thuat": 728,
      "tsik": 729,
      "lo̍k": 730,
      "tsuā": 731,
      "Sìng": 732,
      "phi": 733,
      "pa̍t": 734,
      "sím": 735,
      "ngó͘": 736,
      "tián": 737,
      "la̍t": 738,
      "pái": 739,
      "tn̂g": 740,
      "hioh": 741,
      "khuì": 742,
      "bông": 743,
      "Ông": 744,
      "thè": 745,
      "mê": 746,
      "sú": 747,
      "hn̂g": 748,
      "Alông": 749,
      "puē": 750,
      "tá": 751,
      "Bi": 752,
      "Sîn": 753,
      "láu": 754,
      "kho͘": 755,
      "gue̍h": 756,
      "Lē": 757,
      "sǹg": 758,
      "ba": 759,
      "phài": 760,
      "hn̄g": 761,
      "hiān": 762,
      "Tsiah": 763,
      "Lēbī": 764,
      "tō": 765,
      "Thiⁿ": 766,
      "piáⁿ": 767,
      "kiong": 768,
      "Án": 769,
      "Lâng": 770,
      "suah": 771,
      "tshiúⁿ": 772,
      "tō͘": 773,
      "ing": 774,
      "sai": 775,
      "siau": 776,
      "ióng": 777,
      "kua": 778,
      "Babúlông": 779,
      "pe̍h": 780,
      "thàn": 781,
      "tshâ": 782,
      "tshân": 783,
      "tsiok": 784,
      "huh": 785,
      "huah": 786,
      "pik": 787,
      "Tshi": 788,
      "khó": 789,
      "tshiánn": 790,
      "Jîn": 791,
      "kí": 792,
      "kuī": 793,
      "kīn": 794,
      "Tuì": 795,
      "thô͘": 796,
      "Nā": 797,
      "līsū": 798,
      "Huilīsū": 799,
      "peh": 800,
      "pài": 801,
      "ûⁿ": 802,
      "thé": 803,
      "siù": 804,
      "Iôsé": 805,
      "Iôséhuh": 806,
      "pâi": 807,
      "uân": 808,
      "líng": 809,
      "lômóng": 810,
      "sèⁿ": 811,
      "Só͘lômóng": 812,
      "tsâi": 813,
      "huāi": 814,
      "thong": 815,
      "pō͘": 816,
      "sái": 817,
      "Huâ": 818,
      "tiám": 819,
      "hāu": 820,
      "Gi": 821,
      "tuī": 822,
      "Ka": 823,
      "tò͘": 824,
      "hông": 825,
      "lî": 826,
      "tshia": 827,
      "Pi": 828,
      "tsín": 829,
      "uàn": 830,
      "la̍k": 831,
      "buē": 832,
      "hûn": 833,
      "kai": 834,
      "kuaⁿ": 835,
      "Th": 836,
      "bōng": 837,
      "tang": 838,
      "siá": 839,
      "pêⁿ": 840,
      "kū": 841,
      "tiōng": 842,
      "hiuⁿ": 843,
      "tiām": 844,
      "siông": 845,
      "Abu": 846,
      "hián": 847,
      "tshīng": 848,
      "tsháu": 849,
      "lahàm": 850,
      "Abulahàm": 851,
      "tsî": 852,
      "kian": 853,
      "tshiong": 854,
      "bu̍t": 855,
      "muē": 856,
      "khàu": 857,
      "kāng": 858,
      "Lán": 859,
      "tsheⁿ": 860,
      "sò͘": 861,
      "tông": 862,
      "huè": 863,
      "kuì": 864,
      "liām": 865,
      "pâng": 866,
      "ua̍t": 867,
      "ùⁿ": 868,
      "iú": 869,
      "kuan": 870,
      "tshiah": 871,
      "bué": 872,
      "kiông": 873,
      "tshiūⁿ": 874,
      "sài": 875,
      "tsìn": 876,
      "sió": 877,
      "suan": 878,
      "tsû": 879,
      "phû": 880,
      "Páu": 881,
      "lān": 882,
      "tsióng": 883,
      "Páulô": 884,
      "Sī": 885,
      "tsiáu": 886,
      "puàⁿ": 887,
      "pha": 888,
      "kat": 889,
      "bô͘": 890,
      "tng": 891,
      "Hiah": 892,
      "uan": 893,
      "tīn": 894,
      "Kiàn": 895,
      "tn̄g": 896,
      "tsòng": 897,
      "gi̍k": 898,
      "phuà": 899,
      "Tu": 900,
      "neh": 901,
      "siúah": 902,
      "Iosiúah": 903,
      "kú": 904,
      "tshú": 905,
      "iông": 906,
      "kó͘": 907,
      "hiat": 908,
      "tseh": 909,
      "thìng": 910,
      "pue": 911,
      "kàng": 912,
      "tsiàⁿ": 913,
      "Kàu": 914,
      "thiāu": 915,
      "tàn": 916,
      "Ia": 917,
      "La̍h": 918,
      "gōng": 919,
      "tshiûⁿ": 920,
      "pia̍t": 921,
      "Kiû": 922,
      "tik": 923,
      "niá": 924,
      "mu": 925,
      "ting": 926,
      "attò͘": 927,
      "Piattò͘": 928,
      "bín": 929,
      "kuá": 930,
      "sàn": 931,
      "hing": 932,
      "hui": 933,
      "khò͘": 934,
      "tshì": 935,
      "hiâⁿ": 936,
      "siâ": 937,
      "tsua̍t": 938,
      "phang": 939,
      "tí": 940,
      "bâi": 941,
      "hīⁿ": 942,
      "iù": 943,
      "tsān": 944,
      "tiàu": 945,
      "puâⁿ": 946,
      "buah": 947,
      "toh": 948,
      "thî": 949,
      "tshim": 950,
      "Ehu": 951,
      "tsù": 952,
      "ki̍k": 953,
      "Bô": 954,
      "uè": 955,
      "Le": 956,
      "tsīn": 957,
      "tsíng": 958,
      "liû": 959,
      "huê": 960,
      "khàm": 961,
      "tsal": 962,
      "tshòng": 963,
      "Tsa": 964,
      "jiok": 965,
      "thiah": 966,
      "há": 967,
      "khuah": 968,
      "tòng": 969,
      "ím": 970,
      "An": 971,
      "kiōng": 972,
      "He": 973,
      "ltàn": 974,
      "nân": 975,
      "ol": 976,
      "tiàm": 977,
      "giām": 978,
      "Ioltàn": 979,
      "hú": 980,
      "hua̍t": 981,
      "kut": 982,
      "Tng": 983,
      "tōng": 984,
      "thó": 985,
      "Mô͘ap": 986,
      "siah": 987,
      "tiāu": 988,
      "piān": 989,
      "Ph": 990,
      "than": 991,
      "hún": 992,
      "jīn": 993,
      "khuài": 994,
      "kué": 995,
      "tsheh": 996,
      "po͘": 997,
      "sià": 998,
      "kó": 999,
      "le": 1000,
      "tsha̍t": 1001,
      "pān": 1002,
      "khel": 1003,
      "khik": 1004,
      "pênn": 1005,
      "Mi": 1006,
      "káu": 1007,
      "ba̍t": 1008,
      "síng": 1009,
      "suà": 1010,
      "suàⁿ": 1011,
      "miah": 1012,
      "la̍p": 1013,
      "nâ": 1014,
      "ta̍h": 1015,
      "ngō͘": 1016,
      "hue": 1017,
      "tuàn": 1018,
      "suí": 1019,
      "hua": 1020,
      "laim": 1021,
      "suán": 1022,
      "tian": 1023,
      "siul": 1024,
      "kiāⁿ": 1025,
      "Tsì": 1026,
      "kìⁿ": 1027,
      "Ah": 1028,
      "Tē": 1029,
      "khe": 1030,
      "Ehulaim": 1031,
      "Ne": 1032,
      "pāi": 1033,
      "ià": 1034,
      "kiàm": 1035,
      "ké": 1036,
      "lân": 1037,
      "siám": 1038,
      "iô": 1039,
      "Biān": 1040,
      "Kám": 1041,
      "hā": 1042,
      "pun": 1043,
      "phue": 1044,
      "iu": 1045,
      "ò͘ⁿ": 1046,
      "me": 1047,
      "Tsè": 1048,
      "bí": 1049,
      "Sa": 1050,
      "khǹg": 1051,
      "kaⁿ": 1052,
      "sūn": 1053,
      "tóm": 1054,
      "phuê": 1055,
      "iàu": 1056,
      "kiau": 1057,
      "Kā": 1058,
      "iáⁿ": 1059,
      "iám": 1060,
      "Siáⁿ": 1061,
      "ha̍k": 1062,
      "khiàm": 1063,
      "Asiul": 1064,
      "ha̍p": 1065,
      "uel": 1066,
      "éⁿ": 1067,
      "huì": 1068,
      "khan": 1069,
      "Biāniám": 1070,
      "Biāniámín": 1071,
      "tsok": 1072,
      "hiaⁿ": 1073,
      "pēⁿ": 1074,
      "si̍p": 1075,
      "thih": 1076,
      "sap": 1077,
      "Kiáⁿ": 1078,
      "mî": 1079,
      "sih": 1080,
      "thàm": 1081,
      "liān": 1082,
      "Baal": 1083,
      "Sam": 1084,
      "hat": 1085,
      "thó͘": 1086,
      "tsînn": 1087,
      "Ná": 1088,
      "thîng": 1089,
      "tshiùⁿ": 1090,
      "piàⁿ": 1091,
      "niû": 1092,
      "thok": 1093,
      "kuàn": 1094,
      "Alâm": 1095,
      "Ha": 1096,
      "Su": 1097,
      "To̍k": 1098,
      "inn": 1099,
      "phi̍h": 1100,
      "Samuel": 1101,
      "Eli": 1102,
      "būn": 1103,
      "pau": 1104,
      "thàu": 1105,
      "giân": 1106,
      "thun": 1107,
      "bo̍k": 1108,
      "Ammóng": 1109,
      "Pa": 1110,
      "bó": 1111,
      "io": 1112,
      "Ioap": 1113,
      "thau": 1114,
      "kìm": 1115,
      "liāu": 1116,
      "luān": 1117,
      "Kal": 1118,
      "pa̍k": 1119,
      "sàng": 1120,
      "tsà": 1121,
      "ngē": 1122,
      "Be": 1123,
      "Elí": 1124,
      "ta̍t": 1125,
      "tsng": 1126,
      "khin": 1127,
      "As": 1128,
      "Ísak": 1129,
      "tsat": 1130,
      "tshī": 1131,
      "phak": 1132,
      "Na": 1133,
      "Tsu": 1134,
      "keh": 1135,
      "tsián": 1136,
      "tsiām": 1137,
      "pua̍h": 1138,
      "be̍h": 1139,
      "tâi": 1140,
      "gióng": 1141,
      "tap": 1142,
      "tam": 1143,
      "kia": 1144,
      "luī": 1145,
      "khún": 1146,
      "tui": 1147,
      "tsekia": 1148,
      "Hitsekia": 1149,
      "lo": 1150,
      "sûn": 1151,
      "jiah": 1152,
      "Bān": 1153,
      "bo": 1154,
      "bíng": 1155,
      "hōng": 1156,
      "i̍k": 1157,
      "tsong": 1158,
      "huâi": 1159,
      "ik": 1160,
      "tshong": 1161,
      "Mā": 1162,
      "tsi̍h": 1163,
      "li̍h": 1164,
      "Lô": 1165,
      "Mán": 1166,
      "bong": 1167,
      "áse": 1168,
      "Mánáse": 1169,
      "Ga": 1170,
      "huāⁿ": 1171,
      "Tsù": 1172,
      "Gilia̍t": 1173,
      "kuái": 1174,
      "kàm": 1175,
      "kià": 1176,
      "ling": 1177,
      "giâm": 1178,
      "Jiân": 1179,
      "Se": 1180,
      "háu": 1181,
      "hut": 1182,
      "tshái": 1183,
      "náthan": 1184,
      "Jiânāu": 1185,
      "ho": 1186,
      "iau": 1187,
      "tài": 1188,
      "Āu": 1189,
      "tsâu": 1190,
      "tshíng": 1191,
      "Li": 1192,
      "soh": 1193,
      "khua": 1194,
      "kuah": 1195,
      "Eliiah": 1196,
      "hām": 1197,
      "kún": 1198,
      "tsió": 1199,
      "phian": 1200,
      "Ham": 1201,
      "ga̍k": 1202,
      "siān": 1203,
      "Tsìng": 1204,
      "pi̍k": 1205,
      "khai": 1206,
      "tsiânn": 1207,
      "khíng": 1208,
      "sua": 1209,
      "khióng": 1210,
      "tsîⁿ": 1211,
      "pûn": 1212,
      "Ionáthan": 1213,
      "pó͘": 1214,
      "psa": 1215,
      "Αpsa": 1216,
      "khut": 1217,
      "tsuh": 1218,
      "lôm": 1219,
      "Αpsalôm": 1220,
      "Sè": 1221,
      "uāⁿ": 1222,
      "hióng": 1223,
      "si̍k": 1224,
      "khioh": 1225,
      "Amí": 1226,
      "Pu": 1227,
      "pō": 1228,
      "phiah": 1229,
      "siâng": 1230,
      "Hō͘": 1231,
      "niûⁿ": 1232,
      "suh": 1233,
      "Kóng": 1234,
      "tsip": 1235,
      "siang": 1236,
      "Asah": 1237,
      "bê": 1238,
      "hî": 1239,
      "tsâng": 1240,
      "tshò": 1241,
      "Hua": 1242,
      "ian": 1243,
      "jū": 1244,
      "suá": 1245,
      "sàu": 1246,
      "uh": 1247,
      "thian": 1248,
      "Tshin": 1249,
      "Ke": 1250,
      "bû": 1251,
      "tsiànn": 1252,
      "kam": 1253,
      "kuai": 1254,
      "jia̍t": 1255,
      "pá": 1256,
      "kiám": 1257,
      "thòng": 1258,
      "sīn": 1259,
      "kuà": 1260,
      "niā": 1261,
      "Me": 1262,
      "ho͘": 1263,
      "lia̍p": 1264,
      "khau": 1265,
      "Amô͘": 1266,
      "gí": 1267,
      "tó͘": 1268,
      "ūⁿ": 1269,
      "̍uh": 1270,
      "tshue": 1271,
      "tsiáng": 1272,
      "tshuah": 1273,
      "bih": 1274,
      "Uī": 1275,
      "tióng": 1276,
      "tiùⁿ": 1277,
      "Bia̍t": 1278,
      "kuaiⁿ": 1279,
      "siû": 1280,
      "thí": 1281,
      "tshat": 1282,
      "līa": 1283,
      "Kî": 1284,
      "Ma": 1285,
      "khia": 1286,
      "nah": 1287,
      "pan": 1288,
      "thê": 1289,
      "Ahap": 1290,
      "Etóm": 1291,
      "Lâi": 1292,
      "tîn": 1293,
      "tìng": 1294,
      "huán": 1295,
      "líah": 1296,
      "Elísiah": 1297,
      "hàn": 1298,
      "sīng": 1299,
      "tsham": 1300,
      "lio̍k": 1301,
      "tha̍k": 1302,
      "Tshiánn": 1303,
      "pán": 1304,
      "tséⁿ": 1305,
      "thǹg": 1306,
      "tshiò": 1307,
      "iàn": 1308,
      "tshn̂g": 1309,
      "jia": 1310,
      "khiâ": 1311,
      "ui": 1312,
      "him": 1313,
      "Abi": 1314,
      "Amá": 1315,
      "Pí": 1316,
      "gî": 1317,
      "jím": 1318,
      "kù": 1319,
      "pì": 1320,
      "pìng": 1321,
      "táⁿ": 1322,
      "Tsh": 1323,
      "puê": 1324,
      "Sím": 1325,
      "be": 1326,
      "pkat": 1327,
      "tàu": 1328,
      "netsal": 1329,
      "muâ": 1330,
      "Nepkat": 1331,
      "Nepkatnetsal": 1332,
      "sat": 1333,
      "huân": 1334,
      "tháu": 1335,
      "kuat": 1336,
      "Palân": 1337,
      "gāng": 1338,
      "káⁿ": 1339,
      "mī": 1340,
      "phiàn": 1341,
      "kiah": 1342,
      "tham": 1343,
      "hû": 1344,
      "tî": 1345,
      "tshiat": 1346,
      "khuân": 1347,
      "liông": 1348,
      "bî": 1349,
      "puî": 1350,
      "Tsuân": 1351,
      "Ge": 1352,
      "Kuan": 1353,
      "kàⁿ": 1354,
      "tsiong": 1355,
      "tiân": 1356,
      "ko͘": 1357,
      "gîng": 1358,
      "nái": 1359,
      "tshî": 1360,
      "ani": 1361,
      "Tsiàu": 1362,
      "ala̍h": 1363,
      "kuainn": 1364,
      "Puâⁿ": 1365,
      "bóng": 1366,
      "hòng": 1367,
      "tshau": 1368,
      "Tsò": 1369,
      "phì": 1370,
      "thuàⁿ": 1371,
      "muí": 1372,
      "Es": 1373,
      "po̍h": 1374,
      "Amô͘lī": 1375,
      "Esáu": 1376,
      "Ta̍k": 1377,
      "bel": 1378,
      "iā": 1379,
      "hia̍t": 1380,
      "tsha": 1381,
      "tsìnn": 1382,
      "kheⁿ": 1383,
      "Al": 1384,
      "pòng": 1385,
      "uí": 1386,
      "huā": 1387,
      "tshìn": 1388,
      "tsuâ": 1389,
      "Sat": 1390,
      "iām": 1391,
      "sok": 1392,
      "tām": 1393,
      "tsīng": 1394,
      "Símòng": 1395,
      "Lū": 1396,
      "io̍k": 1397,
      "kńg": 1398,
      "tîng": 1399,
      "Īng": 1400,
      "hiáu": 1401,
      "tshiuⁿ": 1402,
      "Hiann": 1403,
      "Tuā": 1404,
      "Tani": 1405,
      "tsuan": 1406,
      "biān": 1407,
      "Pháiⁿ": 1408,
      "Mika": 1409,
      "Taniel": 1410,
      "Ji": 1411,
      "ha": 1412,
      "hâ": 1413,
      "pa": 1414,
      "tsel": 1415,
      "kheh": 1416,
      "thài": 1417,
      "khuat": 1418,
      "thiàu": 1419,
      "sann": 1420,
      "Ga̍t": 1421,
      "Lāu": 1422,
      "lê": 1423,
      "pîn": 1424,
      "hi̍k": 1425,
      "tshiáⁿ": 1426,
      "Ap": 1427,
      "Khí": 1428,
      "tûn": 1429,
      "kip": 1430,
      "Sia": 1431,
      "tsiò": 1432,
      "tiau": 1433,
      "khong": 1434,
      "liam": 1435,
      "Tì": 1436,
      "nòng": 1437,
      "theh": 1438,
      "tshik": 1439,
      "khiam": 1440,
      "O͘": 1441,
      "gâu": 1442,
      "sóng": 1443,
      "jiáu": 1444,
      "Aha": 1445,
      "gal": 1446,
      "nu": 1447,
      "kho": 1448,
      "thel": 1449,
      "thái": 1450,
      "suè": 1451,
      "Sīkhiàm": 1452,
      "',": 1453,
      "Keh": 1454,
      "Sâm": 1455,
      "tau": 1456,
      "hiong": 1457,
      "thâng": 1458,
      "thua": 1459,
      "Lūbiān": 1460,
      "Sâmsóng": 1461,
      "Mâ": 1462,
      "Sim": 1463,
      "Tuà": 1464,
      "lo̍t": 1465,
      "Mâlíah": 1466,
      "il": 1467,
      "tsoh": 1468,
      "tsio": 1469,
      "sut": 1470,
      "thiu": 1471,
      "buh": 1472,
      "kông": 1473,
      "tsim": 1474,
      "tsuâⁿ": 1475,
      "ela̍h": 1476,
      "biāu": 1477,
      "phuāⁿ": 1478,
      "Jî": 1479,
      "Mí": 1480,
      "Tàn": 1481,
      "enn": 1482,
      "nel": 1483,
      "phè": 1484,
      "Bethel": 1485,
      "Abú": 1486,
      "Kah": 1487,
      "Mol": 1488,
      "hīng": 1489,
      "tikiah": 1490,
      "khîm": 1491,
      "tshng": 1492,
      "piáu": 1493,
      "niah": 1494,
      "Iobuh": 1495,
      "Tsetikiah": 1496,
      "tékái": 1497,
      "Abúlâm": 1498,
      "Moltékái": 1499,
      "Ku": 1500,
      "bal": 1501,
      "kòng": 1502,
      "Siat": 1503,
      "su̍t": 1504,
      "Mítiân": 1505,
      "Bûn": 1506,
      "Hô": 1507,
      "Isái": 1508,
      "ban": 1509,
      "buán": 1510,
      "sióng": 1511,
      "thàng": 1512,
      "sue": 1513,
      "piah": 1514,
      "Hiat": 1515,
      "Tshiáⁿ": 1516,
      "nuā": 1517,
      "Isáiah": 1518,
      "Bel": 1519,
      "nńg": 1520,
      "pīng": 1521,
      "Êlīa": 1522,
      "huaⁿ": 1523,
      "tshiau": 1524,
      "khiân": 1525,
      "tìm": 1526,
      "Apnel": 1527,
      "Êlīatsal": 1528,
      "Pe": 1529,
      "tann": 1530,
      "siak": 1531,
      "tiâⁿ": 1532,
      "khū": 1533,
      "thah": 1534,
      "kuài": 1535,
      "tsuì": 1536,
      "iúⁿ": 1537,
      "Tulô": 1538,
      "La̍hban": 1539,
      "men": 1540,
      "iū": 1541,
      "tê": 1542,
      "tong": 1543,
      "hiù": 1544,
      "tshioh": 1545,
      "Tsá": 1546,
      "biō": 1547,
      "pue̍h": 1548,
      "jīm": 1549,
      "Hebúlông": 1550,
      "Sí": 1551,
      "sám": 1552,
      "tiūⁿ": 1553,
      "kio̍k": 1554,
      "tshéⁿ": 1555,
      "Hamán": 1556,
      "Gî": 1557,
      "Nó͘": 1558,
      "tiûⁿ": 1559,
      "liu": 1560,
      "khiok": 1561,
      "thuí": 1562,
      "siuⁿ": 1563,
      "Gîtióng": 1564,
      "Kin": 1565,
      "nāi": 1566,
      "Êsut": 1567,
      "ìm": 1568,
      "hiám": 1569,
      "tua̍t": 1570,
      "sīm": 1571,
      "Satán": 1572,
      "Êsutel": 1573,
      "Gī": 1574,
      "Kh": 1575,
      "tín": 1576,
      "sia": 1577,
      "tiuⁿ": 1578,
      "thóng": 1579,
      "tsha̍k": 1580,
      "tuāⁿ": 1581,
      "Má": 1582,
      "So͘": 1583,
      "kē": 1584,
      "lûn": 1585,
      "tsàn": 1586,
      "thún": 1587,
      "tshian": 1588,
      "tshìng": 1589,
      "Mal": 1590,
      "mel": 1591,
      "pn̄g": 1592,
      "tsông": 1593,
      "siânn": 1594,
      "siáng": 1595,
      "that": 1596,
      "liâm": 1597,
      "Basiáng": 1598,
      "thalí": 1599,
      "Ji̍t": 1600,
      "Kai": 1601,
      "To": 1602,
      "gê": 1603,
      "lún": 1604,
      "Ahi": 1605,
      "Ko": 1606,
      "bū": 1607,
      "iōng": 1608,
      "lan": 1609,
      "tóng": 1610,
      "tàⁿ": 1611,
      "tshài": 1612,
      "liōng": 1613,
      "phâng": 1614,
      "pho͘": 1615,
      "puān": 1616,
      "Suî": 1617,
      "jú": 1618,
      "lām": 1619,
      "me̍h": 1620,
      "nà": 1621,
      "tái": 1622,
      "uat": 1623,
      "tsô": 1624,
      "tsioh": 1625,
      "Elī": 1626,
      "hān": 1627,
      "luán": 1628,
      "tsó": 1629,
      "sioh": 1630,
      "thai": 1631,
      "khuà": 1632,
      "tshàu": 1633,
      "tseⁿ": 1634,
      "Nó͘ah": 1635,
      "iāu": 1636,
      "jua̍h": 1637,
      "māu": 1638,
      "biáu": 1639,
      "Kiù": 1640,
      "phuè": 1641,
      "Gil": 1642,
      "Amáli̍k": 1643,
      "Gat": 1644,
      "Tú": 1645,
      "pé": 1646,
      "pok": 1647,
      "sò": 1648,
      "táu": 1649,
      "Siâⁿ": 1650,
      "Sitòng": 1651,
      "piak": 1652,
      "Tî": 1653,
      "tán": 1654,
      "tsê": 1655,
      "tshám": 1656,
      "lih": 1657,
      "lián": 1658,
      "jiá": 1659,
      "la̍uh": 1660,
      "khiáu": 1661,
      "So͘tóm": 1662,
      "Kú": 1663,
      "Sala̍h": 1664,
      "bō": 1665,
      "hèm": 1666,
      "io̍h": 1667,
      "sún": 1668,
      "kiap": 1669,
      "thì": 1670,
      "giâ": 1671,
      "léhèm": 1672,
      "Bia̍tléhèm": 1673,
      "Amátsiah": 1674,
      "Han": 1675,
      "Isim": 1676,
      "Nn̄g": 1677,
      "ael": 1678,
      "san": 1679,
      "uah": 1680,
      "tsàu": 1681,
      "phīⁿ": 1682,
      "puè": 1683,
      "o͘t": 1684,
      "Isimael": 1685,
      "Beh": 1686,
      "Kûn": 1687,
      "Kuè": 1688,
      "hóng": 1689,
      "kǹg": 1690,
      "né": 1691,
      "sng": 1692,
      "tánn": 1693,
      "ùnn": 1694,
      "khè": 1695,
      "Sian": 1696,
      "tshiùnn": 1697,
      "khueh": 1698,
      "Tsí": 1699,
      "lak": 1700,
      "King": 1701,
      "Tsi̍t": 1702,
      "Ló": 1703,
      "lám": 1704,
      "só": 1705,
      "hiòng": 1706,
      "tih": 1707,
      "khà": 1708,
      "Sio̍k": 1709,
      "suī": 1710,
      "liâu": 1711,
      "phîng": 1712,
      "bi̍k": 1713,
      "Lótoh": 1714,
      "Hó": 1715,
      "iūⁿ": 1716,
      "mē": 1717,
      "tsân": 1718,
      "huî": 1719,
      "tiū": 1720,
      "khé": 1721,
      "tshó": 1722,
      "phō": 1723,
      "phín": 1724,
      "khing": 1725,
      "bua̍t": 1726,
      "Lia̍t": 1727,
      "Akhà": 1728,
      "Bala̍h": 1729,
      "Huē": 1730,
      "Ulīa": 1731,
      "luî": 1732,
      "pe": 1733,
      "tshiu": 1734,
      "tshiân": 1735,
      "kāu": 1736,
      "ku̍t": 1737,
      "Tshit": 1738,
      "phā": 1739,
      "phûn": 1740,
      "pha̍uh": 1741,
      "Gilgal": 1742,
      "Akhàtsuh": 1743,
      "Kì": 1744,
      "Khó": 1745,
      "etsel": 1746,
      "no": 1747,
      "tîm": 1748,
      "tsiàm": 1749,
      "thò͘": 1750,
      "khuan": 1751,
      "mih": 1752,
      "se̍h": 1753,
      "thuî": 1754,
      "Tāi": 1755,
      "làu": 1756,
      "tsūn": 1757,
      "huthalí": 1758,
      "kiā": 1759,
      "kiáu": 1760,
      "khuá": 1761,
      "elsiah": 1762,
      "Tso": 1763,
      "biat": 1764,
      "Thang": 1765,
      "Phelsiah": 1766,
      "le̍p": 1767,
      "Náhuthalí": 1768,
      "Ahatsiah": 1769,
      "Náhuthalím": 1770,
      "Gōng": 1771,
      "Te": 1772,
      "bán": 1773,
      "bak": 1774,
      "ot": 1775,
      "tâm": 1776,
      "）,": 1777,
      "tuān": 1778,
      "tshap": 1779,
      "Náthan": 1780,
      "Hamat": 1781,
      "phāinn": 1782,
      "It": 1783,
      "Tû": 1784,
      "he": 1785,
      "pân": 1786,
      "îⁿ": 1787,
      "sibóng": 1788,
      "the": 1789,
      "hiau": 1790,
      "Hilâm": 1791,
      "Thâu": 1792,
      "Hesibóng": 1793,
      "Suà": 1794,
      "huâiⁿ": 1795,
      "Iá": 1796,
      "Khu": 1797,
      "Pîng": 1798,
      "Sela̍h": 1799,
      "lè": 1800,
      "tak": 1801,
      "tsiam": 1802,
      "Sihông": 1803,
      "kap": 1804,
      "tsho͘": 1805,
      "keⁿ": 1806,
      "Tham": 1807,
      "Kok": 1808,
      "Sù": 1809,
      "tà": 1810,
      "tǹg": 1811,
      "hin": 1812,
      "tio̍k": 1813,
      "Tsin": 1814,
      "Leah": 1815,
      "Ato": 1816,
      "Hat": 1817,
      "Liân": 1818,
      "Sal": 1819,
      "ha̍h": 1820,
      "pùn": 1821,
      "phiau": 1822,
      "sû": 1823,
      "sia̍h": 1824,
      "tiòng": 1825,
      "thán": 1826,
      "tshiàⁿ": 1827,
      "khuàn": 1828,
      "thiànn": 1829,
      "phó͘": 1830,
      "Iôná": 1831,
      "puh": 1832,
      "Lap": 1833,
      "Sìn": 1834,
      "iâm": 1835,
      "kâng": 1836,
      "mah": 1837,
      "mô͘": 1838,
      "hiú": 1839,
      "siàn": 1840,
      "tiah": 1841,
      "kiánn": 1842,
      "Simi": 1843,
      "suil": 1844,
      "kal": 1845,
      "ela": 1846,
      "pit": 1847,
      "Amno": 1848,
      "lot": 1849,
      "Seil": 1850,
      "Ahasuil": 1851,
      "Simiān": 1852,
      "Amnon": 1853,
      "Ahasuiló͘": 1854,
      "Atsa": 1855,
      "Ahim": 1856,
      "El": 1857,
      "Go": 1858,
      "Utsi": 1859,
      "hì": 1860,
      "lōng": 1861,
      "pè": 1862,
      "īnn": 1863,
      "Sin": 1864,
      "tshuàⁿ": 1865,
      "jiû": 1866,
      "phò": 1867,
      "kham": 1868,
      "o͘h": 1869,
      "luân": 1870,
      "tália̍h": 1871,
      "Benái": 1872,
      "Getália̍h": 1873,
      "Mikaiah": 1874,
      "Benáiah": 1875,
      "Ho": 1876,
      "gō": 1877,
      "gāi": 1878,
      "hap": 1879,
      "mó͘": 1880,
      "ool": 1881,
      "pū": 1882,
      "tsōng": 1883,
      "sián": 1884,
      "huánn": 1885,
      "thal": 1886,
      "pēnn": 1887,
      "thuh": 1888,
      "hùn": 1889,
      "tsiúⁿ": 1890,
      "Siahuánn": 1891,
      "Khóla̍h": 1892,
      "Thamal": 1893,
      "Bē": 1894,
      "Nùn": 1895,
      "Pal": 1896,
      "hah": 1897,
      "po": 1898,
      "tat": 1899,
      "Âng": 1900,
      "）.": 1901,
      "hio̍h": 1902,
      "kia̍p": 1903,
      "thiau": 1904,
      "guî": 1905,
      "puaⁿ": 1906,
      "buâ": 1907,
      "Basiah": 1908,
      "Kohat": 1909,
      "Nátap": 1910,
      "tauh": 1911,
      "Atsalíah": 1912,
      "Ala̍h": 1913,
      "Nám": 1914,
      "Sì": 1915,
      "athal": 1916,
      "lāng": 1917,
      "tsa̍h": 1918,
      "tsiáⁿ": 1919,
      "khîⁿ": 1920,
      "Siú": 1921,
      "tháⁿ": 1922,
      "tshiòng": 1923,
      "Tshut": 1924,
      "pháng": 1925,
      "giâu": 1926,
      "Tal": 1927,
      "Asel": 1928,
      "Abiathal": 1929,
      "Síbah": 1930,
      "Atonî": 1931,
      "Ala̍hbah": 1932,
      "At": 1933,
      "Gín": 1934,
      "Hū": 1935,
      "Kel": 1936,
      "Lu": 1937,
      "Lù": 1938,
      "hm̄": 1939,
      "mé": 1940,
      "píng": 1941,
      "tan": 1942,
      "tsih": 1943,
      "hia̍h": 1944,
      "huà": 1945,
      "uánn": 1946,
      "tshāi": 1947,
      "Huān": 1948,
      "ail": 1949,
      "Pik": 1950,
      "Etsu": 1951,
      "Nî": 1952,
      "Tong": 1953,
      "gîm": 1954,
      "hâng": 1955,
      "hīnn": 1956,
      "nông": 1957,
      "osih": 1958,
      "sòng": 1959,
      "sela̍h": 1960,
      "tso͘": 1961,
      "hian": 1962,
      "sisih": 1963,
      "khài": 1964,
      "Siū": 1965,
      "Sisela̍h": 1966,
      "thò": 1967,
      "kol": 1968,
      "ka̍k": 1969,
      "liah": 1970,
      "phīng": 1971,
      "phāng": 1972,
      "luí": 1973,
      "iánn": 1974,
      "Thê": 1975,
      "Nebat": 1976,
      "Lip": 1977,
      "Abisai": 1978,
      "Utsiiah": 1979,
      "Palosih": 1980,
      "Talsisih": 1981,
      "Atonîiah": 1982,
      "Ehuah": 1983,
      "Iu": 1984,
      "Itsa": 1985,
      "hâm": 1986,
      "lkí": 1987,
      "mot": 1988,
      "tâu": 1989,
      "átsuh": 1990,
      "íⁿ": 1991,
      "kióng": 1992,
      "Siu": 1993,
      "lió": 1994,
      "tshui": 1995,
      "tsael": 1996,
      "gio̍k": 1997,
      "Iétse": 1998,
      "khiú": 1999,
      "ohtsuh": 2000,
      "Hilkí": 2001,
      "Bôohtsuh": 2002,
      "Hatsael": 2003,
      "bot": 2004,
      "tîⁿ": 2005,
      "Simí": 2006,
      "Malki": 2007,
      "Etsula̍h": 2008,
      "Ehuahátsuh": 2009,
      "Itsakal": 2010,
      "Iétsebel": 2011,
      "Hilkíiah": 2012,
      "),": 2013,
      "Bîn": 2014,
      "Gû": 2015,
      "Ik": 2016,
      "Kìng": 2017,
      "Kun": 2018,
      "Uá": 2019,
      "hô͘": 2020,
      "mo͘": 2021,
      "omih": 2022,
      "phué": 2023,
      "seh": 2024,
      "to͘": 2025,
      "tsám": 2026,
      "hiàm": 2027,
      "kiu": 2028,
      "suê": 2029,
      "suat": 2030,
      "liú": 2031,
      "phú": 2032,
      "tshùn": 2033,
      "phiaⁿ": 2034,
      "The": 2035,
      "Hagal": 2036,
      "Nabal": 2037,
      "Nabot": 2038,
      "Naomih": 2039,
      "Bí": 2040,
      "Lô͘": 2041,
      "Ni": 2042,
      "jūn": 2043,
      "kán": 2044,
      "ue": 2045,
      "tsuán": 2046,
      "kuâⁿ": 2047,
      "kuann": 2048,
      "thiat": 2049,
      "phàu": 2050,
      "puânn": 2051,
      "kha̍p": 2052,
      "thuā": 2053,
      "Guā": 2054,
      "Aki": 2055,
      "Abel": 2056,
      "Kaⁿ": 2057,
      "Tsim": 2058,
      "hò͘ⁿ": 2059,
      "jah": 2060,
      "kō": 2061,
      "mài": 2062,
      "pà": 2063,
      "tân": 2064,
      "uai": 2065,
      "hul": 2066,
      "huel": 2067,
      "tiô": 2068,
      "kiann": 2069,
      "Siàu": 2070,
      "lik": 2071,
      "atetsel": 2072,
      "lap": 2073,
      "sìⁿ": 2074,
      "khiuⁿ": 2075,
      "nih": 2076,
      "o͘k": 2077,
      "Thiaⁿ": 2078,
      "Thiàⁿ": 2079,
      "Bian": 2080,
      "Amô͘su": 2081,
      "pìⁿ": 2082,
      "Khì": 2083,
      "Hatatetsel": 2084,
      "Atám": 2085,
      "Kelsióng": 2086,
      "Akisi": 2087,
      "Asit": 2088,
      "Khióng": 2089,
      "Lâm": 2090,
      "Mela": 2091,
      "Thong": 2092,
      "hang": 2093,
      "hâi": 2094,
      "àp": 2095,
      "tsō͘": 2096,
      "hiā": 2097,
      "hiâm": 2098,
      "tiánn": 2099,
      "liàp": 2100,
      "tshuán": 2101,
      "Ammo͘": 2102,
      "phiânn": 2103,
      "khiau": 2104,
      "Hanan": 2105,
      "Khuànn": 2106,
      "Asito͘t": 2107,
      "Melalih": 2108,
      "Ammo͘la̍h": 2109,
      "'.": 2110,
      "Ahit": 2111,
      "Hel": 2112,
      "Kit": 2113,
      "Ma̍k": 2114,
      "bái": 2115,
      "ohuel": 2116,
      "um": 2117,
      "éli̍k": 2118,
      "tsáiⁿ": 2119,
      "tinn": 2120,
      "kisih": 2121,
      "tuaⁿ": 2122,
      "tuan": 2123,
      "tshan": 2124,
      "phô͘": 2125,
      "Kiám": 2126,
      "Tha": 2127,
      "La̍hkisih": 2128,
      "muê": 2129,
      "Mikal": 2130,
      "Ahiiah": 2131,
      "Ahikam": 2132,
      "Ahiméli̍k": 2133,
      "pèⁿ": 2134,
      "Námān": 2135,
      "Ahitohuel": 2136,
      "'?": 2137,
      "Etiân": 2138,
      "Hann": 2139,
      "Man": 2140,
      "Pak": 2141,
      "asi": 2142,
      "a̍uh": 2143,
      "ge": 2144,
      "ní": 2145,
      "ouah": 2146,
      "ul": 2147,
      "tsîn": 2148,
      "tsang": 2149,
      "nga̍uh": 2150,
      "tshiam": 2151,
      "sueh": 2152,
      "suann": 2153,
      "khue": 2154,
      "pian": 2155,
      "áiah": 2156,
      "puà": 2157,
      "Kiânn": 2158,
      "Tsiong": 2159,
      "Hue": 2160,
      "Tik": 2161,
      "Thian": 2162,
      "siùⁿ": 2163,
      "lep": 2164,
      "Nethán": 2165,
      "O͘k": 2166,
      "Simáiah": 2167,
      "Mákah": 2168,
      "Hannah": 2169,
      "Manouah": 2170,
      "Nethániah": 2171,
      "Alap": 2172,
      "Bal": 2173,
      "Geh": 2174,
      "Iok": 2175,
      "Iûⁿ": 2176,
      "SI": 2177,
      "Sî": 2178,
      "Tí": 2179,
      "Teh": 2180,
      "Tsuí": 2181,
      "atsih": 2182,
      "gail": 2183,
      "jû": 2184,
      "no͘h": 2185,
      "tal": 2186,
      "înn": 2187,
      "tsé": 2188,
      "tsām": 2189,
      "tsiān": 2190,
      "hiân": 2191,
      "hiáng": 2192,
      "khám": 2193,
      "kot": 2194,
      "tshâi": 2195,
      "lip": 2196,
      "thia̍p": 2197,
      "Tsa̍p": 2198,
      "Tshuā": 2199,
      "tsìⁿ": 2200,
      "khián": 2201,
      "Tsia̍h": 2202,
      "Ama": 2203,
      "Abigail": 2204,
      "Gehatsih": 2205,
      "Ak": 2206,
      "Hol": 2207,
      "Im": 2208,
      "Iáu": 2209,
      "Kng": 2210,
      "Kong": 2211,
      "Lī": 2212,
      "Lóng": 2213,
      "Lim": 2214,
      "Mat": 2215,
      "Nel": 2216,
      "Om": 2217,
      "Pó": 2218,
      "Peh": 2219,
      "Sé": 2220,
      "gú": 2221,
      "gán": 2222,
      "gái": 2223,
      "ia": 2224,
      "iâ": 2225,
      "ilah": 2226,
      "khit": 2227,
      "nó͘": 2228,
      "te": 2229,
      "Àm": 2230,
      "énn": 2231,
      "Τī": 2232,
      "Τio̍h": 2233,
      "huàn": 2234,
      "khîn": 2235,
      "lioh": 2236,
      "tsuè": 2237,
      "phòng": 2238,
      "biiah": 2239,
      "gia̍t": 2240,
      "puah": 2241,
      "Kim": 2242,
      "phuì": 2243,
      "Tsik": 2244,
      "Tsiaⁿ": 2245,
      "tsetik": 2246,
      "Thinn": 2247,
      "Tsua̍t": 2248,
      "Keilah": 2249,
      "Abiiah": 2250,
      "Tshám": 2251,
      "Tobiiah": 2252,
      "Salái": 2253,
      "Malkitsetik": 2254,
      "Hananiah": 2255,
      "Omlī": 2256,
      "Athalí": 2257,
      "Boh": 2258,
      "Hái": 2259,
      "Iû": 2260,
      "Itham": 2261,
      "ISI": 2262,
      "Kuán": 2263,
      "Mak": 2264,
      "Sàn": 2265,
      "ase": 2266,
      "khiah": 2267,
      "na": 2268,
      "nó": 2269,
      "Ài": 2270,
      "tsah": 2271,
      "tsiaⁿ": 2272,
      "tiáⁿ": 2273,
      "Siâ": 2274,
      "tshénn": 2275,
      "Tsai": 2276,
      "pho": 2277,
      "pho̍k": 2278,
      "Hut": 2279,
      "phiⁿ": 2280,
      "mua": 2281,
      "Phah": 2282,
      "Mik": 2283,
      "Suaⁿ": 2284,
      "Sebah": 2285,
      "Maase": 2286,
      "Tshe": 2287,
      "Lùthuh": 2288,
      "Amasa": 2289,
      "Athalíiah": 2290,
      "Bohol": 2291,
      "Ithamal": 2292,
      "nóm": 2293,
      "Maaseiah": 2294,
      "Gâ": 2295,
      "Hāi": 2296,
      "Kan": 2297,
      "Kò͘": 2298,
      "Muí": 2299,
      "Pē": 2300,
      "Tô": 2301,
      "Tang": 2302,
      "hîm": 2303,
      "iàⁿ": 2304,
      "lat": 2305,
      "mú": 2306,
      "man": 2307,
      "phit": 2308,
      "tsùn": 2309,
      "tsool": 2310,
      "hiông": 2311,
      "siok": 2312,
      "suta": 2313,
      "liel": 2314,
      "atàn": 2315,
      "Tsîng": 2316,
      "phà": 2317,
      "phìng": 2318,
      "bil": 2319,
      "bul": 2320,
      "butsal": 2321,
      "lúm": 2322,
      "Io̍p": 2323,
      "tseba": 2324,
      "Batseba": 2325,
      "Iâm": 2326,
      "tasiá": 2327,
      "The̍h": 2328,
      "huibo": 2329,
      "khelip": 2330,
      "Nebutsal": 2331,
      "Hatsool": 2332,
      "Senah": 2333,
      "Put": 2334,
      "Asahel": 2335,
      "Mehuibo": 2336,
      "Altasiá": 2337,
      "Lipnah": 2338,
      "Nebutsalatàn": 2339,
      "Senahkhelip": 2340,
      "Mehuibosiat": 2341,
      "Altasiásuta": 2342,
      "Ag": 2343,
      "Hap": 2344,
      "Kui": 2345,
      "Mn̂g": 2346,
      "Ol": 2347,
      "Saⁿ": 2348,
      "Sai": 2349,
      "eah": 2350,
      "go͘": 2351,
      "ká": 2352,
      "māi": 2353,
      "mán": 2354,
      "tūn": 2355,
      "tsiông": 2356,
      "siòng": 2357,
      "tiông": 2358,
      "tia̍h": 2359,
      "khóng": 2360,
      "tuî": 2361,
      "suànn": 2362,
      "kuāⁿ": 2363,
      "tshah": 2364,
      "tshua̍h": 2365,
      "phê": 2366,
      "phàn": 2367,
      "giám": 2368,
      "Kiò": 2369,
      "Husia": 2370,
      "Til": 2371,
      "Tiān": 2372,
      "Bián": 2373,
      "Biat": 2374,
      "Gia̍h": 2375,
      "Ehulóng": 2376,
      "Kaleah": 2377,
      "Hamool": 2378,
      "Getsel": 2379,
      "Sialúm": 2380,
      "Lu̍t": 2381,
      "Agak": 2382,
      "Ba̍k": 2383,
      "Ela̍h": 2384,
      "Hâm": 2385,
      "Ióng": 2386,
      "Iâⁿ": 2387,
      "Kó͘": 2388,
      "Kol": 2389,
      "Mam": 2390,
      "Ping": 2391,
      "Tíng": 2392,
      "Tsun": 2393,
      "ga": 2394,
      "hàu": 2395,
      "kô͘": 2396,
      "lin": 2397,
      "le̍h": 2398,
      "mh": 2399,
      "mo͘t": 2400,
      "sô": 2401,
      "sa̍h": 2402,
      "hik": 2403,
      "tia": 2404,
      "tiⁿ": 2405,
      "líám": 2406,
      "Sio": 2407,
      "thîn": 2408,
      "thūn": 2409,
      "tshiû": 2410,
      "tshiⁿ": 2411,
      "tshò͘": 2412,
      "tshai": 2413,
      "liàn": 2414,
      "Tsē": 2415,
      "Tso͘": 2416,
      "Tsal": 2417,
      "Tshù": 2418,
      "puāⁿ": 2419,
      "thui": 2420,
      "Guân": 2421,
      "phik": 2422,
      "Bil": 2423,
      "Hemán": 2424,
      "Milíám": 2425,
      "Elíap": 2426,
      "Tsha": 2427,
      "phìⁿ": 2428,
      "Pen": 2429,
      "Pekah": 2430,
      "Sémh": 2431,
      "Mamlē": 2432,
      ").": 2433,
      "16": 2434,
      "Be̍h": 2435,
      "Go͘k": 2436,
      "Hong": 2437,
      "Iā": 2438,
      "Khiā": 2439,
      "Lú": 2440,
      "La̍k": 2441,
      "Lâu": 2442,
      "Ng": 2443,
      "Nê": 2444,
      "Oba": 2445,
      "Pîn": 2446,
      "Phul": 2447,
      "Sū": 2448,
      "SPh": 2449,
      "Tó": 2450,
      "Tim": 2451,
      "Ua": 2452,
      "Uàn": 2453,
      "Utsà": 2454,
      "akim": 2455,
      "git": 2456,
      "hán": 2457,
      "jíⁿ": 2458,
      "lok": 2459,
      "pô": 2460,
      "pô͘": 2461,
      "ut": 2462,
      "âtsu": 2463,
      "Τaⁿ": 2464,
      "huâ": 2465,
      "tīⁿ": 2466,
      "Sisiak": 2467,
      "thng": 2468,
      "tshi̍h": 2469,
      "tshàng": 2470,
      "jióng": 2471,
      "Tsháu": 2472,
      "phâu": 2473,
      "piànn": 2474,
      "giat": 2475,
      "hia̍p": 2476,
      "Kisi": 2477,
      "Kiau": 2478,
      "niam": 2479,
      "sùn": 2480,
      "Tsiáng": 2481,
      "léiù": 2482,
      "Bik": 2483,
      "Tho": 2484,
      "Hagái": 2485,
      "Eliakim": 2486,
      "Tsuē": 2487,
      "bool": 2488,
      "Kenî": 2489,
      "Tshân": 2490,
      "Hanun": 2491,
      "Ahimâtsu": 2492,
      "hìⁿ": 2493,
      "Olnân": 2494,
      "Nêléiù": 2495,
      "Obatiah": 2496,
      "Ab": 2497,
      "Aná": 2498,
      "BK": 2499,
      "Egú": 2500,
      "Hn̂g": 2501,
      "Ian": 2502,
      "Kang": 2503,
      "Lîng": 2504,
      "Līng": 2505,
      "Nim": 2506,
      "San": 2507,
      "XX": 2508,
      "gū": 2509,
      "gah": 2510,
      "kànn": 2511,
      "ló͘": 2512,
      "long": 2513,
      "lò͘": 2514,
      "mái": 2515,
      "tāu": 2516,
      "tún": 2517,
      "ua": 2518,
      "Ìn": 2519,
      "Íng": 2520,
      "sihul": 2521,
      "tiu": 2522,
      "khng": 2523,
      "khok": 2524,
      "kil": 2525,
      "Si̍t": 2526,
      "tha̍h": 2527,
      "thot": 2528,
      "liù": 2529,
      "jiám": 2530,
      "thiám": 2531,
      "thiap": 2532,
      "Tsō": 2533,
      "Tsū": 2534,
      "Tsûn": 2535,
      "phàⁿ": 2536,
      "pha̍k": 2537,
      "biah": 2538,
      "sam": 2539,
      "Kiâⁿ": 2540,
      "kîⁿ": 2541,
      "phut": 2542,
      "Huul": 2543,
      "lut": 2544,
      "huil": 2545,
      "Ehut": 2546,
      "Pasihul": 2547,
      "Tsuè": 2548,
      "Ketal": 2549,
      "Makil": 2550,
      "Ta̍kpe": 2551,
      "ballat": 2552,
      "Khal": 2553,
      "ném": 2554,
      "Elkán": 2555,
      "Anáthot": 2556,
      "Egúlóng": 2557,
      "Sanballat": 2558,
      "Ta̍kpeneh": 2559,
      "Elkánah": 2560,
      "..": 2561,
      "11": 2562,
      "Aláu": 2563,
      "Bo": 2564,
      "Bé": 2565,
      "Bat": 2566,
      "Gel": 2567,
      "Hûn": 2568,
      "Ing": 2569,
      "Kuàn": 2570,
      "Kuí": 2571,
      "Khùn": 2572,
      "La": 2573,
      "Mê": 2574,
      "Nah": 2575,
      "Sela": 2576,
      "Un": 2577,
      "hó͘": 2578,
      "hîn": 2579,
      "ián": 2580,
      "iam": 2581,
      "lîn": 2582,
      "lo͘t": 2583,
      "no͘k": 2584,
      "pî": 2585,
      "sá": 2586,
      "song": 2587,
      "tâ": 2588,
      "Αń": 2589,
      "Τuì": 2590,
      "siam": 2591,
      "sia̍p": 2592,
      "khá": 2593,
      "kiâm": 2594,
      "Siap": 2595,
      "thô": 2596,
      "inat": 2597,
      "tshoh": 2598,
      "liò": 2599,
      "lio̍h": 2600,
      "tsut": 2601,
      "Tsîn": 2602,
      "Tsap": 2603,
      "pháu": 2604,
      "pió": 2605,
      "pu̍t": 2606,
      "Kisióng": 2607,
      "niú": 2608,
      "tésih": 2609,
      "Tuè": 2610,
      "Ehula̍t": 2611,
      "lemiah": 2612,
      "siulám": 2613,
      "Elíasi": 2614,
      "Elísiam": 2615,
      "Ketésih": 2616,
      "Mesiulám": 2617,
      "ho͘h": 2618,
      "besi": 2619,
      "Ittó͘": 2620,
      "iabesi": 2621,
      "Abinat": 2622,
      "Aláunah": 2623,
      "Gelal": 2624,
      "Nahasi": 2625,
      "Selaiah": 2626,
      "Siapná": 2627,
      "Elíasip": 2628,
      "Elísiamah": 2629,
      "Abinatap": 2630,
      "Aliel": 2631,
      "Bo̍k": 2632,
      "Kín": 2633,
      "Lāi": 2634,
      "LXX": 2635,
      "Mah": 2636,
      "Puē": 2637,
      "Ua̍h": 2638,
      "bá": 2639,
      "loh": 2640,
      "o̍p": 2641,
      "pín": 2642,
      "tāⁿ": 2643,
      "tsīⁿ": 2644,
      "tsilâi": 2645,
      "sip": 2646,
      "tiò": 2647,
      "kiān": 2648,
      "Siâng": 2649,
      "Sial": 2650,
      "Silemiah": 2651,
      "thíng": 2652,
      "thûn": 2653,
      "tshiok": 2654,
      "kouah": 2655,
      "tsho̍p": 2656,
      "liâng": 2657,
      "tshuàn": 2658,
      "tsuah": 2659,
      "thiann": 2660,
      "Tsáu": 2661,
      "Tshong": 2662,
      "siūnn": 2663,
      "ô͘bal": 2664,
      "pián": 2665,
      "khip": 2666,
      "khiàu": 2667,
      "sèa": 2668,
      "thu̍t": 2669,
      "Tiâⁿ": 2670,
      "phiò": 2671,
      "Tshiú": 2672,
      "Tshing": 2673,
      "Tshiùⁿ": 2674,
      "Thô͘bal": 2675,
      "Sīm": 2676,
      "Tuâⁿ": 2677,
      "Elihu": 2678,
      "pōe": 2679,
      "Megit": 2680,
      "Tshòng": 2681,
      "huānn": 2682,
      "khool": 2683,
      "Hôsèa": 2684,
      "iūnn": 2685,
      "Námá": 2686,
      "Malkiiah": 2687,
      "Thekouah": 2688,
      "Baltsilâi": 2689,
      "Aksa̍h": 2690,
      "Biklih": 2691,
      "Megitóng": 2692,
      "10": 2693,
      "21": 2694,
      "Bû": 2695,
      "Gō͘": 2696,
      "Hîng": 2697,
      "Iail": 2698,
      "Ké": 2699,
      "Kíng": 2700,
      "Kuáⁿ": 2701,
      "Lî": 2702,
      "Lō͘": 2703,
      "Mî": 2704,
      "Pàng": 2705,
      "Phue": 2706,
      "Tê": 2707,
      "Ta̍t": 2708,
      "Tel": 2709,
      "go̍k": 2710,
      "ha̍t": 2711,
      "hel": 2712,
      "kùn": 2713,
      "là": 2714,
      "ma": 2715,
      "pōng": 2716,
      "pinn": 2717,
      "so͘": 2718,
      "tùn": 2719,
      "êⁿ": 2720,
      "ênn": 2721,
      "Ǹg": 2722,
      "tsinn": 2723,
      "siáu": 2724,
      "khat": 2725,
      "kiok": 2726,
      "kiuⁿ": 2727,
      "Sing": 2728,
      "tháng": 2729,
      "tshí": 2730,
      "tshàn": 2731,
      "tshún": 2732,
      "tsul": 2733,
      "mi̍k": 2734,
      "Tsó": 2735,
      "Tsa̍k": 2736,
      "Tsín": 2737,
      "Tsún": 2738,
      "biân": 2739,
      "pué": 2740,
      "tsím": 2741,
      "Kiat": 2742,
      "ketah": 2743,
      "phua̍h": 2744,
      "Tsip": 2745,
      "but": 2746,
      "thuel": 2747,
      "Hué": 2748,
      "luâ": 2749,
      "top": 2750,
      "Tiong": 2751,
      "Tiàm": 2752,
      "Hiàn": 2753,
      "Piⁿ": 2754,
      "Thó͘": 2755,
      "Thài": 2756,
      "Lemi̍k": 2757,
      "tsalel": 2758,
      "Pha": 2759,
      "Mil": 2760,
      "Nebó": 2761,
      "Bethuel": 2762,
      "Betsalel": 2763,
      "Seⁿ": 2764,
      "anih": 2765,
      "siaam": 2766,
      "Hananih": 2767,
      "Itthai": 2768,
      "Khuàⁿ": 2769,
      "Elnáthan": 2770,
      "Lùtsuh": 2771,
      "Kitthê": 2772,
      "Ma̍kketah": 2773,
      "teⁿ": 2774,
      "Tsheⁿ": 2775,
      "Bilha̍h": 2776,
      "Penuel": 2777,
      "tiunn": 2778,
      ".'": 2779,
      "Akan": 2780,
      "Alio̍k": 2781,
      "Bú": 2782,
      "Bâi": 2783,
      "Gô": 2784,
      "Gâu": 2785,
      "Hōng": 2786,
      "Jī": 2787,
      "Kè": 2788,
      "Kāng": 2789,
      "Kau": 2790,
      "Lai": 2791,
      "LBK": 2792,
      "Mó͘": 2793,
      "Nâ": 2794,
      "Pò": 2795,
      "Pún": 2796,
      "So": 2797,
      "Tán": 2798,
      "Tsiú": 2799,
      "Tńg": 2800,
      "Tol": 2801,
      "Thuân": 2802,
      "Uē": 2803,
      "ho̍h": 2804,
      "ia̍t": 2805,
      "ioh": 2806,
      "ia̍p": 2807,
      "kê": 2808,
      "kâu": 2809,
      "lò": 2810,
      "lō": 2811,
      "lū": 2812,
      "mo͘h": 2813,
      "nè": 2814,
      "náu": 2815,
      "nāu": 2816,
      "pat": 2817,
      "pol": 2818,
      "sah": 2819,
      "sel": 2820,
      "sńg": 2821,
      "tel": 2822,
      "Ún": 2823,
      "ékiah": 2824,
      "tsiat": 2825,
      "tsian": 2826,
      "tsia̍t": 2827,
      "siap": 2828,
      "hual": 2829,
      "hulah": 2830,
      "tiû": 2831,
      "kih": 2832,
      "kiū": 2833,
      "kia̍t": 2834,
      "Sime": 2835,
      "tuh": 2836,
      "thak": 2837,
      "ána": 2838,
      "tshńg": 2839,
      "lióng": 2840,
      "thián": 2841,
      "miel": 2842,
      "Tsāi": 2843,
      "Tshun": 2844,
      "Tshuì": 2845,
      "phông": 2846,
      "līat": 2847,
      "khim": 2848,
      "khiat": 2849,
      "pua̍t": 2850,
      "puànn": 2851,
      "tsíⁿ": 2852,
      "Kiaⁿ": 2853,
      "Tsia": 2854,
      "Tsiap": 2855,
      "lué": 2856,
      "tol": 2857,
      "Ting": 2858,
      "Hiān": 2859,
      "tsáinn": 2860,
      "Thiāu": 2861,
      "Tshiū": 2862,
      "Tho͘": 2863,
      "Phû": 2864,
      "thanel": 2865,
      "iot": 2866,
      "Nathanel": 2867,
      "Lia̍h": 2868,
      "khiap": 2869,
      "Abietsel": 2870,
      "Tsha̍t": 2871,
      "Tsham": 2872,
      "Alkih": 2873,
      "O͘hulah": 2874,
      "Belékiah": 2875,
      "Khó͘": 2876,
      "Máthài": 2877,
      "theⁿ": 2878,
      "Golīat": 2879,
      "Ngá": 2880,
      "kháel": 2881,
      "Mîkháel": 2882,
      "Laisi": 2883,
      ");": 2884,
      "15": 2885,
      "22": 2886,
      "32": 2887,
      "AG": 2888,
      "Aiah": 2889,
      "Bu": 2890,
      "Bê": 2891,
      "Bó͘": 2892,
      "Ban": 2893,
      "CS": 2894,
      "CAG": 2895,
      "Elóng": 2896,
      "Ebah": 2897,
      "Ebal": 2898,
      "Ebiat": 2899,
      "Ho̍k": 2900,
      "Hông": 2901,
      "Hok": 2902,
      "Ha̍k": 2903,
      "Hak": 2904,
      "Ip": 2905,
      "Kī": 2906,
      "Kū": 2907,
      "Kuì": 2908,
      "Khui": 2909,
      "Lām": 2910,
      "Liáu": 2911,
      "Mel": 2912,
      "Mn̄g": 2913,
      "Nai": 2914,
      "Ok": 2915,
      "Ot": 2916,
      "Pó͘": 2917,
      "Pán": 2918,
      "Pa̍t": 2919,
      "Phok": 2920,
      "Sīn": 2921,
      "Sò͘": 2922,
      "Suan": 2923,
      "Tà": 2924,
      "Tit": 2925,
      "Tâng": 2926,
      "Uân": 2927,
      "etá": 2928,
      "gē": 2929,
      "han": 2930,
      "hàm": 2931,
      "hal": 2932,
      "lái": 2933,
      "lpah": 2934,
      "mí": 2935,
      "mō͘": 2936,
      "meh": 2937,
      "nán": 2938,
      "na̍h": 2939,
      "pin": 2940,
      "pìn": 2941,
      "so": 2942,
      "sang": 2943,
      "uaⁿ": 2944,
      "Îm": 2945,
      "Îng": 2946,
      "áinn": 2947,
      "ānn": 2948,
      "Νo͘": 2949,
      "ⁿh": 2950,
      "tsā": 2951,
      "hunî": 2952,
      "tim": 2953,
      "tiat": 2954,
      "khīng": 2955,
      "kiàⁿ": 2956,
      "tshián": 2957,
      "khìng": 2958,
      "āiⁿ": 2959,
      "só͘po": 2960,
      "kann": 2961,
      "khuê": 2962,
      "tshê": 2963,
      "liāng": 2964,
      "tèⁿ": 2965,
      "thiò": 2966,
      "Tshuē": 2967,
      "phau": 2968,
      "pháinn": 2969,
      "lam": 2970,
      "giú": 2971,
      "tsèⁿ": 2972,
      "hóm": 2973,
      "Kiông": 2974,
      "Kian": 2975,
      "niū": 2976,
      "niáu": 2977,
      "niel": 2978,
      "phuah": 2979,
      "máliel": 2980,
      "Ti̍t": 2981,
      "Ti̍k": 2982,
      "Thih": 2983,
      "tamiah": 2984,
      "Gip": 2985,
      "Thàu": 2986,
      "Thàn": 2987,
      "Thal": 2988,
      "Hegái": 2989,
      "Pho": 2990,
      "Hasia": 2991,
      "innah": 2992,
      "Betsik": 2993,
      "Elíetsel": 2994,
      "hool": 2995,
      "Hametá": 2996,
      "Jilpah": 2997,
      "Siahuat": 2998,
      "tháim": 2999,
      "Kuah": 3000,
      "Kuaⁿ": 3001,
      "Ahino": 3002,
      "Khuài": 3003,
      "Utsiel": 3004,
      "Hohunî": 3005,
      "Gâmáliel": 3006,
      "Hāiⁿ": 3007,
      "Biltat": 3008,
      "Peninnah": 3009,
      "Ngó͘": 3010,
      "Nimsī": 3011,
      "Mêsó͘po": 3012,
      "Banah": 3013,
      "CSK": 3014,
      "Otniel": 3015,
      "Sīnal": 3016,
      "Νo͘p": 3017,
      "phauh": 3018,
      "Hasiabiah": 3019,
      "Hametátha": 3020,
      "Ahinoám": 3021,
      "Mêsó͘potamiah": 3022,
      "';": 3023,
      "14": 3024,
      "18": 3025,
      "19": 3026,
      "23": 3027,
      "31": 3028,
      "Atsu": 3029,
      "Apí": 3030,
      "Bíng": 3031,
      "Eh": 3032,
      "Em": 3033,
      "Enn": 3034,
      "Gela̍h": 3035,
      "HS": 3036,
      "Hin": 3037,
      "Ho͘": 3038,
      "Hal": 3039,
      "Iông": 3040,
      "Khi": 3041,
      "Kuī": 3042,
      "Káu": 3043,
      "Kāu": 3044,
      "Khia": 3045,
      "Kâng": 3046,
      "Kuân": 3047,
      "Lo": 3048,
      "Lo̍k": 3049,
      "Nô͘": 3050,
      "Pe̍h": 3051,
      "Pâi": 3052,
      "Pam": 3053,
      "Sîng": 3054,
      "Sûn": 3055,
      "SBK": 3056,
      "Tō": 3057,
      "Tah": 3058,
      "To̍h": 3059,
      "Tan": 3060,
      "Tn̂g": 3061,
      "Toh": 3062,
      "To͘": 3063,
      "Thiann": 3064,
      "Uan": 3065,
      "asa̍h": 3066,
      "bân": 3067,
      "bol": 3068,
      "go": 3069,
      "guī": 3070,
      "gel": 3071,
      "gok": 3072,
      "hám": 3073,
      "juh": 3074,
      "kô": 3075,
      "kâⁿ": 3076,
      "lá": 3077,
      "mān": 3078,
      "na̍t": 3079,
      "pû": 3080,
      "puī": 3081,
      "tám": 3082,
      "uà": 3083,
      "uàⁿ": 3084,
      "ésiah": 3085,
      "ìⁿ": 3086,
      "Τhu": 3087,
      "Τhang": 3088,
      "）;": 3089,
      "tso": 3090,
      "tsán": 3091,
      "tsǹg": 3092,
      "tsiⁿ": 3093,
      "tsiân": 3094,
      "tsia̍p": 3095,
      "tsiûⁿ": 3096,
      "siai": 3097,
      "siba": 3098,
      "hu̍t": 3099,
      "tio": 3100,
      "tiânn": 3101,
      "uái": 3102,
      "kho̍k": 3103,
      "kha̍h": 3104,
      "khâm": 3105,
      "khînn": 3106,
      "kinn": 3107,
      "Sit": 3108,
      "Siá": 3109,
      "Sió": 3110,
      "Siā": 3111,
      "Siaⁿ": 3112,
      "Siông": 3113,
      "Siám": 3114,
      "Siam": 3115,
      "tuânn": 3116,
      "tho": 3117,
      "tshiâ": 3118,
      "kue": 3119,
      "tshó͘": 3120,
      "tshué": 3121,
      "jiàu": 3122,
      "jiâu": 3123,
      "tsa̍t": 3124,
      "thióng": 3125,
      "Tsé": 3126,
      "Tsû": 3127,
      "Tshia": 3128,
      "Tsau": 3129,
      "phok": 3130,
      "lal": 3131,
      "ámel": 3132,
      "tsìm": 3133,
      "sael": 3134,
      "khia̍t": 3135,
      "puann": 3136,
      "lôam": 3137,
      "oham": 3138,
      "nil": 3139,
      "niám": 3140,
      "phun": 3141,
      "phuē": 3142,
      "Tsing": 3143,
      "Tsiàn": 3144,
      "nájuh": 3145,
      "buat": 3146,
      "hímiah": 3147,
      "Hun": 3148,
      "Huí": 3149,
      "siunn": 3150,
      "máliah": 3151,
      "Tiu": 3152,
      "pīⁿ": 3153,
      "Hilia̍t": 3154,
      "tsiuⁿ": 3155,
      "Tshim": 3156,
      "Giâ": 3157,
      "Piàⁿ": 3158,
      "That": 3159,
      "Thìng": 3160,
      "Thâi": 3161,
      "Phe": 3162,
      "Phó͘": 3163,
      "Phâu": 3164,
      "Misael": 3165,
      "met": 3166,
      "hiaⁿh": 3167,
      "Násòng": 3168,
      "Hathak": 3169,
      "Elíasa̍h": 3170,
      "Sesiba": 3171,
      "Kenájuh": 3172,
      "ho͘ⁿh": 3173,
      "Gemáliah": 3174,
      "Albah": 3175,
      "Algo": 3176,
      "Ji̍p": 3177,
      "Aptóng": 3178,
      "Simsiai": 3179,
      "Hôpa": 3180,
      "Petái": 3181,
      "Málûn": 3182,
      "Malésiah": 3183,
      "Hanámel": 3184,
      "Eloham": 3185,
      "Lùt": 3186,
      "Nîhímiah": 3187,
      "Akbol": 3188,
      "hó͘nn": 3189,
      "Milkah": 3190,
      "Sokhuat": 3191,
      "Simeah": 3192,
      "Apílôam": 3193,
      "Khiam": 3194,
      "Sesibatsal": 3195,
      "Algop": 3196,
      "Petáiah": 3197,
      "29": 3198,
      "?.": 3199,
      "Atah": 3200,
      "Ahí": 3201,
      "Ata": 3202,
      "Ahioh": 3203,
      "Báu": 3204,
      "Ba̍t": 3205,
      "Biáu": 3206,
      "EE": 3207,
      "Ebi": 3208,
      "Gê": 3209,
      "Gol": 3210,
      "Hā": 3211,
      "Huán": 3212,
      "Hn̄g": 3213,
      "Ho͘h": 3214,
      "Iū": 3215,
      "Iàn": 3216,
      "Iau": 3217,
      "Ial": 3218,
      "Jiok": 3219,
      "Ká": 3220,
      "Kat": 3221,
      "Khong": 3222,
      "Khòng": 3223,
      "Kha": 3224,
      "Kuái": 3225,
      "Lông": 3226,
      "Lūn": 3227,
      "Mo͘": 3228,
      "MEE": 3229,
      "Ohui": 3230,
      "Onán": 3231,
      "Pō͘": 3232,
      "Pang": 3233,
      "Pò͘": 3234,
      "Pûn": 3235,
      "Pau": 3236,
      "Suá": 3237,
      "Té": 3238,
      "Tò": 3239,
      "Tîng": 3240,
      "Thuat": 3241,
      "Tap": 3242,
      "Tâi": 3243,
      "Thái": 3244,
      "Uí": 3245,
      "Uî": 3246,
      "bím": 3247,
      "emo͘t": 3248,
      "gó": 3249,
      "guē": 3250,
      "hài": 3251,
      "hai": 3252,
      "iāⁿ": 3253,
      "ju": 3254,
      "lel": 3255,
      "mè": 3256,
      "mal": 3257,
      "nat": 3258,
      "pú": 3259,
      "phō͘": 3260,
      "sn̂g": 3261,
      "utal": 3262,
      "étsel": 3263,
      "ōa": 3264,
      "Μā": 3265,
      "tsái": 3266,
      "ngá": 3267,
      "ngiáu": 3268,
      "tsià": 3269,
      "hip": 3270,
      "hiu": 3271,
      "hiàⁿ": 3272,
      "siⁿ": 3273,
      "tin": 3274,
      "tia̍t": 3275,
      "khap": 3276,
      "kiō": 3277,
      "Siang": 3278,
      "Sikan": 3279,
      "Silu": 3280,
      "tun": 3281,
      "tu̍t": 3282,
      "thám": 3283,
      "tshih": 3284,
      "tshiâⁿ": 3285,
      "tshiám": 3286,
      "sui": 3287,
      "suān": 3288,
      "suàn": 3289,
      "kahia": 3290,
      "khul": 3291,
      "khun": 3292,
      "tshū": 3293,
      "tshîng": 3294,
      "tshōa": 3295,
      "liap": 3296,
      "tsahuán": 3297,
      "thiām": 3298,
      "thiâu": 3299,
      "mit": 3300,
      "Tseh": 3301,
      "Tsìn": 3302,
      "phat": 3303,
      "gián": 3304,
      "giel": 3305,
      "iûnn": 3306,
      "senn": 3307,
      "khiang": 3308,
      "annetsel": 3309,
      "Kik": 3310,
      "Kiong": 3311,
      "Kiánn": 3312,
      "niau": 3313,
      "kauh": 3314,
      "phuānn": 3315,
      "Tsiù": 3316,
      "Tsi̍p": 3317,
      "Tsiok": 3318,
      "nátat": 3319,
      "Huat": 3320,
      "Huann": 3321,
      "luā": 3322,
      "Balak": 3323,
      "Tiū": 3324,
      "Tiōng": 3325,
      "Hia": 3326,
      "Hi̍k": 3327,
      "Hiong": 3328,
      "Ammí": 3329,
      "phia̍t": 3330,
      "khuìⁿ": 3331,
      "khuìnn": 3332,
      "thèⁿ": 3333,
      "Tshiong": 3334,
      "Tshian": 3335,
      "Pikol": 3336,
      "Thòng": 3337,
      "Thau": 3338,
      "mut": 3339,
      "mukan": 3340,
      "tím": 3341,
      "Anel": 3342,
      "Henátat": 3343,
      "olám": 3344,
      "Phâng": 3345,
      "Pho͘": 3346,
      "meli̍k": 3347,
      "Suah": 3348,
      "Elitsul": 3349,
      "Elitsahuán": 3350,
      "Tsuâ": 3351,
      "Hamutal": 3352,
      "Pue̍h": 3353,
      "Meli̍k": 3354,
      "Memukan": 3355,
      "Tshì": 3356,
      "Tshâi": 3357,
      "Tshìn": 3358,
      "bethài": 3359,
      "ko͘t": 3360,
      "Siabethài": 3361,
      "O͘tiat": 3362,
      "Belī": 3363,
      "Pekahia": 3364,
      "Khò": 3365,
      "Khang": 3366,
      "So͘koh": 3367,
      "Malkam": 3368,
      "Ahilu̍t": 3369,
      "Ahila̍h": 3370,
      "tániah": 3371,
      "Atolam": 3372,
      "Hatolám": 3373,
      "Salèm": 3374,
      "Hosah": 3375,
      "Lu̍h": 3376,
      "Thêpín": 3377,
      "Immel": 3378,
      "Matthan": 3379,
      "Mattániah": 3380,
      "Tôí": 3381,
      "Nimlo͘t": 3382,
      "118": 3383,
      "Sialétsel": 3384,
      "Tshiúⁿ": 3385,
      "Phagiel": 3386,
      "tel8": 3387,
      "Hakgit": 3388,
      "Iptsàn": 3389,
      "Melemo͘t": 3390,
      "Thalthàn": 3391,
      "HSA": 3392,
      "To͘la̍h": 3393,
      "Siaⁿmah": 3394,
      "Ahíetsel": 3395,
      "Ataiah": 3396,
      "Ebiannetsel": 3397,
      "Katmiel": 3398,
      "Tappú": 3399,
      "hàiⁿ": 3400,
      "Sikaniah": 3401,
      "Silumiel": 3402,
      "Balakhiah": 3403,
      "Ammíel": 3404,
      "Pekahiap": 3405,
      "Atolammeli̍k": 3406,
      "Thêpínî": 3407,
      "Tappúah": 3408,
      "!.": 3409,
      "'(": 3410,
      ",.": 3411,
      "00": 3412,
      "12": 3413,
      "17": 3414,
      "20": 3415,
      "27": 3416,
      "28": 3417,
      "30": 3418,
      "33": 3419,
      "34": 3420,
      "45": 3421,
      "52": 3422,
      "65": 3423,
      ";,": 3424,
      "AR": 3425,
      "Asa": 3426,
      "Atik": 3427,
      "Bah": 3428,
      "Bán": 3429,
      "Bîng": 3430,
      "Bong": 3431,
      "Bīng": 3432,
      "Bua̍t": 3433,
      "Binn": 3434,
      "EK": 3435,
      "EL": 3436,
      "ES": 3437,
      "Esit": 3438,
      "Ethán": 3439,
      "Gîn": 3440,
      "Giân": 3441,
      "Gióng": 3442,
      "Hì": 3443,
      "Hô͘": 3444,
      "Hām": 3445,
      "Hau": 3446,
      "Ha̍p": 3447,
      "Hīⁿ": 3448,
      "Hò͘ⁿ": 3449,
      "Hīnn": 3450,
      "Ià": 3451,
      "Iân": 3452,
      "Ili": 3453,
      "Ilī": 3454,
      "Jīn": 3455,
      "Jua̍h": 3456,
      "Jím": 3457,
      "Kà": 3458,
      "Kí": 3459,
      "Kīn": 3460,
      "Kàng": 3461,
      "Kàm": 3462,
      "Kap": 3463,
      "Káng": 3464,
      "LO": 3465,
      "Ló͘": 3466,
      "Liû": 3467,
      "Luân": 3468,
      "Liù": 3469,
      "Li̍k": 3470,
      "Mû": 3471,
      "Mài": 3472,
      "No": 3473,
      "Ong": 3474,
      "OOl": 3475,
      "Pì": 3476,
      "Phu": 3477,
      "Pong": 3478,
      "Pān": 3479,
      "Pel": 3480,
      "Pài": 3481,
      "Pit": 3482,
      "Pua̍h": 3483,
      "Phō": 3484,
      "Pela": 3485,
      "Pêⁿ": 3486,
      "PAR": 3487,
      "Sâ": 3488,
      "Só": 3489,
      "Sán": 3490,
      "Sái": 3491,
      "Sap": 3492,
      "Sann": 3493,
      "Tông": 3494,
      "Tān": 3495,
      "Tô͘": 3496,
      "Tsiâⁿ": 3497,
      "Thok": 3498,
      "Tsiūⁿ": 3499,
      "Tiánn": 3500,
      "TEK": 3501,
      "Uāⁿ": 3502,
      "X2": 3503,
      "aka": 3504,
      "atiah": 3505,
      "bún": 3506,
      "bo͘": 3507,
      "emo͘h": 3508,
      "gíng": 3509,
      "hân": 3510,
      "hail": 3511,
      "ip": 3512,
      "iâu": 3513,
      "kel": 3514,
      "kâm": 3515,
      "lû": 3516,
      "lang": 3517,
      "lòng": 3518,
      "làng": 3519,
      "lìn": 3520,
      "mo": 3521,
      "mâ": 3522,
      "m̂": 3523,
      "mat": 3524,
      "mong": 3525,
      "mòng": 3526,
      "muî": 3527,
      "mool": 3528,
      "nô͘": 3529,
      "no͘t": 3530,
      "png": 3531,
      "sà": 3532,
      "sàm": 3533,
      "tù": 3534,
      "tān": 3535,
      "tàm": 3536,
      "us": 3537,
      "úⁿ": 3538,
      "̍͘": 3539,
      "̍khap": 3540,
      "Βô": 3541,
      "Βān": 3542,
      "Ν7": 3543,
      "Τuà": 3544,
      "）（": 3545,
      "tsī": 3546,
      "tsil": 3547,
      "tsiâu": 3548,
      "siāng": 3549,
      "huela̍h": 3550,
      "humet": 3551,
      "tiō": 3552,
      "tioh": 3553,
      "tiānn": 3554,
      "tihuela̍h": 3555,
      "khōng": 3556,
      "kiòng": 3557,
      "kioh": 3558,
      "lím": 3559,
      "Sil": 3560,
      "Siān": 3561,
      "Siló": 3562,
      "Sibé": 3563,
      "Sihua": 3564,
      "Siūⁿ": 3565,
      "tuat": 3566,
      "tuann": 3567,
      "tusih": 3568,
      "sītshú": 3569,
      "tshiàu": 3570,
      "tshiàm": 3571,
      "tshiâng": 3572,
      "tshiāng": 3573,
      "nnh": 3574,
      "kotsuh": 3575,
      "kup": 3576,
      "kuāi": 3577,
      "tshá": 3578,
      "lit": 3579,
      "lian": 3580,
      "liám": 3581,
      "tshuan": 3582,
      "atah": 3583,
      "jiō": 3584,
      "ji̍h": 3585,
      "tsuāⁿ": 3586,
      "anak": 3587,
      "tsau": 3588,
      "mióng": 3589,
      "mi̍t": 3590,
      "TsG": 3591,
      "Tsân": 3592,
      "Tsok": 3593,
      "Tsíng": 3594,
      "Tshiah": 3595,
      "Tsoh": 3596,
      "Tsâi": 3597,
      "Tshú": 3598,
      "Tséⁿ": 3599,
      "phóng": 3600,
      "phǹg": 3601,
      "phn̄g": 3602,
      "pio": 3603,
      "thâm": 3604,
      "seam": 3605,
      "puik": 3606,
      "ohán": 3607,
      "Kià": 3608,
      "Kiàm": 3609,
      "niām": 3610,
      "Tam": 3611,
      "phue̍h": 3612,
      "Tsio̍h": 3613,
      "Tsiáu": 3614,
      "bueh": 3615,
      "thut": 3616,
      "Huāⁿ": 3617,
      "lém": 3618,
      "siup": 3619,
      "Tiāⁿ": 3620,
      "Tiām": 3621,
      "Tiau": 3622,
      "Tiúⁿ": 3623,
      "Ti̍khap": 3624,
      "Hiaⁿ": 3625,
      "tsiuΝ7": 3626,
      "Thiu": 3627,
      "thahiah": 3628,
      "Bi̍t": 3629,
      "Tshiûⁿ": 3630,
      "Gia̍t": 3631,
      "Piān": 3632,
      "Pia̍t": 3633,
      "Tha̍k": 3634,
      "Thàm": 3635,
      "Thǹg": 3636,
      "Tháng": 3637,
      "Thanak": 3638,
      "Phàⁿ": 3639,
      "Phak": 3640,
      "Phohán": 3641,
      "Miâ": 3642,
      "Tsìⁿ": 3643,
      "Tsìnn": 3644,
      "Nebái": 3645,
      "kém": 3646,
      "bíla̍h": 3647,
      "Sabi̍t": 3648,
      "Habíla̍h": 3649,
      "Sua": 3650,
      "Suí": 3651,
      "Eliatah": 3652,
      "lom": 3653,
      "bo̍͘": 3654,
      "kuáiⁿ": 3655,
      "Lián": 3656,
      "Li̍p": 3657,
      "Liâm": 3658,
      "Pue": 3659,
      "Mesiah": 3660,
      "ho͘p": 3661,
      "ho͘nnh": 3662,
      "Tshīng": 3663,
      "Tshau": 3664,
      "bet": 3665,
      "Genu": 3666,
      "Albua̍t": 3667,
      "Jia": 3668,
      "Jia̍t": 3669,
      "Ga̍ttí": 3670,
      "Ahatsái": 3671,
      "Simlī": 3672,
      "Kuà": 3673,
      "Ku̍t": 3674,
      "Belaka": 3675,
      "Pethahiah": 3676,
      "Tsáinn": 3677,
      "Khah": 3678,
      "Khîm": 3679,
      "Khak": 3680,
      "Tou": 3681,
      "Tokal": 3682,
      "tsênn": 3683,
      "peⁿ": 3684,
      "Atolâm": 3685,
      "Hattusih": 3686,
      "Hatkotsuh": 3687,
      "Salmá": 3688,
      "Atsaliah": 3689,
      "Elhan": 3690,
      "Gop": 3691,
      "Gomel": 3692,
      "Atonîlâm": 3693,
      "Atmah": 3694,
      "Thêmá": 3695,
      "kiu̍h": 3696,
      "Bíta̍t": 3697,
      "Tikbah": 3698,
      "SIN": 3699,
      "Amalíah": 3700,
      "Holtah": 3701,
      "mansel": 3702,
      "Bikthàn": 3703,
      "....": 3704,
      "Sialmansel": 3705,
      "Simeat": 3706,
      "Hakmo": 3707,
      "láim": 3708,
      "Photihuela̍h": 3709,
      "Atsubah": 3710,
      "Khiâ": 3711,
      "Tanhumet": 3712,
      "Siamgal": 3713,
      "Phó͘la̍h": 3714,
      "haiⁿ": 3715,
      "juā": 3716,
      "Asaiah": 3717,
      "Atiklia̍t": 3718,
      "Binnuí": 3719,
      "Esitemo͘h": 3720,
      "Iliiah": 3721,
      "Ilīta̍t": 3722,
      "Noatiah": 3723,
      "Pele": 3724,
      "Pelatiah": 3725,
      "PARSIN": 3726,
      "TEKEL": 3727,
      "Silómi̍t": 3728,
      "Sibékai": 3729,
      "Sihuatiah": 3730,
      "Ti̍khapka": 3731,
      "Nebáiot": 3732,
      "bo̍͘t": 3733,
      "Genubat": 3734,
      "Tokalmah": 3735,
      "Elhanan": 3736,
      "Hakmonih": 3737,
      "!'": 3738,
      "!,": 3739,
      "'（": 3740,
      ",:": 3741,
      ".!": 3742,
      ".)": 3743,
      ".,": 3744,
      ".）,": 3745,
      "/,": 3746,
      "116": 3747,
      "24": 3748,
      "25": 3749,
      "26": 3750,
      "35": 3751,
      "36": 3752,
      "40": 3753,
      "42": 3754,
      "43": 3755,
      "44": 3756,
      "47": 3757,
      "51": 3758,
      "53": 3759,
      "59": 3760,
      "66": 3761,
      "69": 3762,
      "72": 3763,
      "73": 3764,
      "77": 3765,
      "89": 3766,
      "97": 3767,
      "=.": 3768,
      "Au": 3769,
      "Ang": 3770,
      "Ahu": 3771,
      "Atí": 3772,
      "Agú": 3773,
      "Bâ": 3774,
      "Bó": 3775,
      "Bōng": 3776,
      "Buē": 3777,
      "Buán": 3778,
      "Bāng": 3779,
      "Bak": 3780,
      "Bun": 3781,
      "Cy": 3782,
      "Da": 3783,
      "ER": 3784,
      "Eg": 3785,
      "Etsel": 3786,
      "Gí": 3787,
      "Ga̍h": 3788,
      "Gô͘": 3789,
      "Git": 3790,
      "Ga̍k": 3791,
      "Go͘": 3792,
      "Gal": 3793,
      "Gim": 3794,
      "HP": 3795,
      "Hí": 3796,
      "Hî": 3797,
      "Hû": 3798,
      "Hē": 3799,
      "Hō": 3800,
      "Hāu": 3801,
      "Hòng": 3802,
      "Hūn": 3803,
      "Hâng": 3804,
      "Him": 3805,
      "Hai": 3806,
      "IL": 3807,
      "Iat": 3808,
      "Iap": 3809,
      "Ithé": 3810,
      "IES": 3811,
      "Je": 3812,
      "Jiáu": 3813,
      "Jiám": 3814,
      "Jio̍k": 3815,
      "KÓ": 3816,
      "Kò": 3817,
      "Kù": 3818,
      "Kông": 3819,
      "Kài": 3820,
      "Kái": 3821,
      "Kòng": 3822,
      "Ko͘": 3823,
      "Khuan": 3824,
      "Khún": 3825,
      "Khuì": 3826,
      "Kho": 3827,
      "Khî": 3828,
      "Khīng": 3829,
      "Kìm": 3830,
      "LT": 3831,
      "Lé": 3832,
      "Lê": 3833,
      "Lah": 3834,
      "Lo̍h": 3835,
      "Láu": 3836,
      "Luán": 3837,
      "La̍p": 3838,
      "Liông": 3839,
      "Mt": 3840,
      "Mu": 3841,
      "Mú": 3842,
      "Mē": 3843,
      "Muá": 3844,
      "Mit": 3845,
      "Mua": 3846,
      "Niû": 3847,
      "N̂g": 3848,
      "No͘": 3849,
      "Num": 3850,
      "NHS": 3851,
      "N77": 3852,
      "O̍h": 3853,
      "Osun": 3854,
      "Pà": 3855,
      "Pá": 3856,
      "Pé": 3857,
      "Pî": 3858,
      "Pû": 3859,
      "Pō": 3860,
      "Pah": 3861,
      "Po̍h": 3862,
      "Pat": 3863,
      "Píng": 3864,
      "Pa̍k": 3865,
      "Po͘": 3866,
      "Pn̄g": 3867,
      "Piah": 3868,
      "Pìn": 3869,
      "Puî": 3870,
      "Piáu": 3871,
      "Phûn": 3872,
      "Phuê": 3873,
      "Phuà": 3874,
      "Phian": 3875,
      "PER": 3876,
      "Sò": 3877,
      "Sú": 3878,
      "Song": 3879,
      "Sok": 3880,
      "Sūn": 3881,
      "Se̍h": 3882,
      "Sǹg": 3883,
      "Sau": 3884,
      "Tè": 3885,
      "Tā": 3886,
      "Tàu": 3887,
      "Tsó͘": 3888,
      "Tîn": 3889,
      "Ta̍h": 3890,
      "Tīng": 3891,
      "Tok": 3892,
      "Tàng": 3893,
      "Thó": 3894,
      "Tann": 3895,
      "Tām": 3896,
      "Tún": 3897,
      "Tîm": 3898,
      "Thí": 3899,
      "Thūn": 3900,
      "Thîng": 3901,
      "Tâm": 3902,
      "Tsīng": 3903,
      "Thuî": 3904,
      "Thiau": 3905,
      "Ui": 3906,
      "Ul": 3907,
      "Uán": 3908,
      "Utsài": 3909,
      "Uliel": 3910,
      "UPARSIN": 3911,
      "Wah": 3912,
      "Ze": 3913,
      "])": 3914,
      "],": 3915,
      "ab": 3916,
      "bâ": 3917,
      "bù": 3918,
      "bâng": 3919,
      "bap": 3920,
      "bua̍h": 3921,
      "báng": 3922,
      "cte": 3923,
      "eb": 3924,
      "gé": 3925,
      "gô": 3926,
      "góng": 3927,
      "gat": 3928,
      "gān": 3929,
      "gò͘": 3930,
      "gòng": 3931,
      "gol": 3932,
      "go͘k": 3933,
      "hà": 3934,
      "hè": 3935,
      "hê": 3936,
      "hìng": 3937,
      "hak": 3938,
      "hol": 3939,
      "iong": 3940,
      "ia̍h": 3941,
      "isa": 3942,
      "iàm": 3943,
      "jîm": 3944,
      "kàn": 3945,
      "lù": 3946,
      "lā": 3947,
      "lìng": 3948,
      "lo͘": 3949,
      "lùn": 3950,
      "mà": 3951,
      "mù": 3952,
      "mín": 3953,
      "moh": 3954,
      "mím": 3955,
      "ny": 3956,
      "nê": 3957,
      "nú": 3958,
      "nuá": 3959,
      "nóng": 3960,
      "nan": 3961,
      "nò͘": 3962,
      "nǹg": 3963,
      "nam": 3964,
      "nai": 3965,
      "ním": 3966,
      "nuāⁿ": 3967,
      "ony": 3968,
      "pr": 3969,
      "pai": 3970,
      "rme": 3971,
      "sām": 3972,
      "sta": 3973,
      "tai": 3974,
      "tbah": 3975,
      "uê": 3976,
      "uànn": 3977,
      "Ín": 3978,
      "Ílī": 3979,
      "Ò͘": 3980,
      "àt": 3981,
      "àê": 3982,
      "ák": 3983,
      "èⁿ": 3984,
      "éng": 3985,
      "ínn": 3986,
      "Ām": 3987,
      "Ūn": 3988,
      "Αū": 3989,
      "Βeh": 3990,
      "Βián": 3991,
      "Τú": 3992,
      "Τa̍k": 3993,
      "Τhìng": 3994,
      "」）;": 3995,
      "合香": 3996,
      "松香": 3997,
      "棑tī": 3998,
      "白松香": 3999,
      "蘇合香": 4000,
      "香螺": 4001,
      "）!": 4002,
      "）?": 4003,
      "）」": 4004,
      "）],": 4005,
      "tsuá": 4006,
      "tsn̂g": 4007,
      "tsàm": 4008,
      "tsn̄g": 4009,
      "tsuánn": 4010,
      "ngâu": 4011,
      "ngiau": 4012,
      "tsiau": 4013,
      "hiō": 4014,
      "hi̍t": 4015,
      "hiang": 4016,
      "hiūⁿ": 4017,
      "hiàt": 4018,
      "siāu": 4019,
      "siphah": 4020,
      "sial": 4021,
      "sithah": 4022,
      "silemiah": 4023,
      "husithah": 4024,
      "ti̍h": 4025,
      "tiàⁿ": 4026,
      "tiok": 4027,
      "tiànn": 4028,
      "tiam": 4029,
      "khî": 4030,
      "khù": 4031,
      "khī": 4032,
      "khái": 4033,
      "khàng": 4034,
      "kiú": 4035,
      "kiâu": 4036,
      "Sik": 4037,
      "Sip": 4038,
      "Sià": 4039,
      "Sián": 4040,
      "Si̍p": 4041,
      "Siong": 4042,
      "Siok": 4043,
      "Siāng": 4044,
      "tuí": 4045,
      "thá": 4046,
      "thû": 4047,
      "tho̍k": 4048,
      "thīⁿ": 4049,
      "thīnn": 4050,
      "sīⁿ": 4051,
      "sīsaⁿ": 4052,
      "sīsi̍t": 4053,
      "sīsuàn": 4054,
      "tshiàng": 4055,
      "suân": 4056,
      "koân": 4057,
      "khuè": 4058,
      "khuaⁿ": 4059,
      "khuáⁿ": 4060,
      "tshang": 4061,
      "tshok": 4062,
      "lisu": 4063,
      "liat": 4064,
      "likam": 4065,
      "liab": 4066,
      "tshuân": 4067,
      "jiáng": 4068,
      "tsua̍h": 4069,
      "tsuāiⁿ": 4070,
      "aniah": 4071,
      "tsam": 4072,
      "thik": 4073,
      "thim": 4074,
      "thiú": 4075,
      "thiòng": 4076,
      "Tsng": 4077,
      "Tsat": 4078,
      "Tso̍k": 4079,
      "Tshîng": 4080,
      "Tshui": 4081,
      "Tshat": 4082,
      "Tshî": 4083,
      "Tsho͘": 4084,
      "phí": 4085,
      "phū": 4086,
      "phoh": 4087,
      "phe̍h": 4088,
      "phal": 4089,
      "lai": 4090,
      "tēnn": 4091,
      "biâu": 4092,
      "sîm": 4093,
      "pih": 4094,
      "pim": 4095,
      "pi̍t": 4096,
      "pia̍k": 4097,
      "pièⁿ": 4098,
      "nem": 4099,
      "gil": 4100,
      "gim": 4101,
      "gio̍h": 4102,
      "gian": 4103,
      "tuānn": 4104,
      "gup": 4105,
      "sahuat": 4106,
      "sea": 4107,
      "sep": 4108,
      "sená": 4109,
      "khih": 4110,
      "khiām": 4111,
      "siúm": 4112,
      "lômā": 4113,
      "apal": 4114,
      "khal": 4115,
      "Kiáu": 4116,
      "kînn": 4117,
      "phuk": 4118,
      "phuànn": 4119,
      "Tsiông": 4120,
      "Tsian": 4121,
      "buk": 4122,
      "tìn": 4123,
      "tshenn": 4124,
      "Iotbah": 4125,
      "lôngê": 4126,
      "thuáⁿ": 4127,
      "thuān": 4128,
      "Hueh": 4129,
      "Huaⁿ": 4130,
      "Huân": 4131,
      "Huan": 4132,
      "Huâi": 4133,
      "lup": 4134,
      "lutsuh": 4135,
      "ala̍t": 4136,
      "tool": 4137,
      "lói": 4138,
      "lóm": 4139,
      "hôm": 4140,
      "siule": 4141,
      "Bauái": 4142,
      "Balisu": 4143,
      "Tip": 4144,
      "Tiō": 4145,
      "Tiáⁿ": 4146,
      "Tian": 4147,
      "Tiám": 4148,
      "Tiūⁿ": 4149,
      "siongà": 4150,
      "píⁿ": 4151,
      "Hik": 4152,
      "Hing": 4153,
      "Hián": 4154,
      "Hiân": 4155,
      "Hian": 4156,
      "Hiel": 4157,
      "Hiuⁿ": 4158,
      "tsiuN77": 4159,
      "la̍hthê": 4160,
      "Gul": 4161,
      "Gue̍h": 4162,
      "li̍kê": 4163,
      "phiat": 4164,
      "phiâⁿ": 4165,
      "súi": 4166,
      "Tshik": 4167,
      "Tshiat": 4168,
      "Tshiàⁿ": 4169,
      "Tshiūⁿ": 4170,
      "kím": 4171,
      "Gisiphah": 4172,
      "Piàn": 4173,
      "Thé": 4174,
      "Thò": 4175,
      "Tháu": 4176,
      "Thel": 4177,
      "Thò͘": 4178,
      "Thàng": 4179,
      "Sībí": 4180,
      "Tui": 4181,
      "mul": 4182,
      "Ananiah": 4183,
      "Herme": 4184,
      "Phò": 4185,
      "Phang": 4186,
      "Phô͘": 4187,
      "Phòng": 4188,
      "Phal": 4189,
      "letat": 4190,
      "Mig": 4191,
      "Mi̍h": 4192,
      "Nehusithah": 4193,
      "Hasiup": 4194,
      "Halutsuh": 4195,
      "Sue": 4196,
      "Sul": 4197,
      "Suàⁿ": 4198,
      "Pasea": 4199,
      "loi": 4200,
      "Gasîm": 4201,
      "iaukah": 4202,
      "Liāu": 4203,
      "Liam": 4204,
      "Lia̍p": 4205,
      "Puàⁿ": 4206,
      "Mesilemiah": 4207,
      "Mesiule": 4208,
      "ho͘t": 4209,
      "Amô͘nî": 4210,
      "ui̍h": 4211,
      "Pílân": 4212,
      "Tshò": 4213,
      "Tshī": 4214,
      "Tshoh": 4215,
      "Tshénn": 4216,
      "phìm": 4217,
      "phìnn": 4218,
      "Alûn": 4219,
      "lêm": 4220,
      "lêng": 4221,
      "Aptah": 4222,
      "O͘bil": 4223,
      "O͘liab": 4224,
      "galban": 4225,
      "nuà": 4226,
      "Kua": 4227,
      "Kut": 4228,
      "Kuat": 4229,
      "Hôlân": 4230,
      "Hôhâm": 4231,
      "Khóng": 4232,
      "Khan": 4233,
      "Khàm": 4234,
      "Khǹg": 4235,
      "Khai": 4236,
      "Malta": 4237,
      "Ahisuah": 4238,
      "Kìnn": 4239,
      "nool": 4240,
      "Khuàn": 4241,
      "Hata̍t": 4242,
      "Salgóng": 4243,
      "Siúⁿ": 4244,
      "Atnah": 4245,
      "mén": 4246,
      "Etsulī": 4247,
      "Siuphìm": 4248,
      "Bíla̍hthê": 4249,
      "Nip": 4250,
      "kána": 4251,
      "Imnah": 4252,
      "Miklot": 4253,
      "Hapsená": 4254,
      "115": 4255,
      "Lamih": 4256,
      "Mahala̍t": 4257,
      "Ta̍tmái": 4258,
      "mabet": 4259,
      "tiûnn": 4260,
      "Buâ": 4261,
      "Atsulikam": 4262,
      "Atsumabet": 4263,
      "Sitlái": 4264,
      "thom": 4265,
      "juê": 4266,
      "000": 4267,
      "LOH": 4268,
      "LOS": 4269,
      "Phuàⁿ": 4270,
      "Phàⁿthê": 4271,
      "Phàⁿthiat": 4272,
      "Ahutsa̍t": 4273,
      "Atílô": 4274,
      "Agúl": 4275,
      "Cypr": 4276,
      "HPK": 4277,
      "Haiⁿh": 4278,
      "ILM": 4279,
      "Ithéel": 4280,
      "KÓng": 4281,
      "Kholē": 4282,
      "Khîⁿ": 4283,
      "LTS": 4284,
      "Mitletat": 4285,
      "Osunapal": 4286,
      "PERES": 4287,
      "Sokpí": 4288,
      "Sauisa": 4289,
      "Tāk": 4290,
      "Zeus": 4291,
      "naih": 4292,
      "onytsa": 4293,
      "stacte": 4294,
      "Ílīsahuat": 4295,
      "ngiauh": 4296,
      "Sībílī": 4297,
      "Hermes": 4298,
      "Mesiulemet": 4299,
      "galbanum": 4300,
      "Cyprus": 4301
    },
    "merges": [
      "t s",
      "n g",
      "ts i",
      "h i",
      "l â",
      "s i",
      "h u",
      "̍ h",
      "t i",
      "a h",
      "u á",
      "k h",
      "k i",
      "ó ng",
      "o ̍h",
      "lâ ng",
      "l í",
      "̍ t",
      "ō ng",
      "t ī",
      "ó ͘",
      "S i",
      "t u",
      "t h",
      "s ī",
      "i n",
      "ti o̍h",
      "ts hi",
      "Si ōng",
      "ō ͘",
      "g uá",
      "lâ i",
      "̍ k",
      "k óng",
      "n n",
      "k ah",
      "e h",
      "s u",
      "k ā",
      "ts ú",
      "à u",
      "kh ì",
      "ā i",
      "k o",
      "h ō͘",
      "á n",
      "s ó͘",
      "L í",
      "ts ò",
      "k a",
      "î ng",
      "k hu",
      "u ī",
      "G uá",
      "Siōng tsú",
      "a ⁿ",
      "k u",
      "b ô",
      "î n",
      "ts h",
      "tsi ū",
      "â n",
      "l i",
      "tu ì",
      "ts hu",
      "̍ p",
      "lí n",
      "a t",
      "á ⁿ",
      "o ng",
      "o ̍k",
      "j i",
      "ô ng",
      "a ̍h",
      "ī ng",
      "ts u",
      "ā n",
      "a ng",
      "ko h",
      "â ⁿ",
      "b eh",
      "a n",
      "à n",
      "t è",
      "à ⁿ",
      "á u",
      "m ā",
      "Siōng tè",
      "k àu",
      "ts a",
      "ì ng",
      "t hi",
      "a ̍t",
      "m i",
      "tsi ̍t",
      "m ̄",
      "e l",
      "T s",
      "l óng",
      "ī n",
      "p h",
      "si ū",
      "ô ͘",
      "o k",
      "l a",
      "t ē",
      "th ang",
      "b i",
      "à i",
      "ki áⁿ",
      "í ng",
      "I n",
      "s î",
      "ā u",
      "p i",
      "tshu t",
      "u ē",
      "th â",
      "tsi ah",
      "b īn",
      "hi t",
      "i t",
      "tshi ū",
      "ti ong",
      "n e",
      "á i",
      "g i",
      "tsi t",
      "ji ̍t",
      "á m",
      "kh í",
      "khu àⁿ",
      "ts ì",
      "I su",
      "la el",
      "Isu lael",
      "ts îng",
      "tu ā",
      "t āi",
      "b în",
      "a ̍k",
      "tshi n",
      "s í",
      "hi a",
      "t o̍h",
      "g u",
      "thâ u",
      "ò ͘",
      "n ā",
      "ts āi",
      "ka n",
      "ts è",
      "i û",
      "ti t",
      "s ì",
      "l ī",
      "̄ g",
      "si m",
      "t eh",
      "tshi ú",
      "j în",
      "û n",
      "mi ̍h",
      "tshiū nn",
      "I é",
      "s a",
      "Ié su",
      "s e",
      "l āi",
      "guá n",
      "í n",
      "hi ah",
      "ki ng",
      "ò ng",
      "à ng",
      "b ē",
      "k hi",
      "I ô",
      "Lí n",
      "̂ g",
      "n ̂g",
      "hu at",
      "p u",
      "tsi àu",
      "à m",
      "tsi n",
      "si ú",
      "si âⁿ",
      "tsa i",
      "tu à",
      "k ì",
      "thi aⁿ",
      "hu é",
      "k ī",
      "l ô",
      "o h",
      "ts ē",
      "ts í",
      "ū n",
      "l o̍h",
      "tsu ē",
      "h ó",
      "â ng",
      "a p",
      "e ̍h",
      "ku è",
      "kh a",
      "ń g",
      "b ó͘",
      "tsi a̍h",
      "ko k",
      "l ō͘",
      "uá n",
      "l án",
      "â nn",
      "k ám",
      "ā ng",
      "a nn",
      "tsa ̍p",
      "khu i",
      "K i",
      "n i",
      "ts ìng",
      "s ù",
      "ā ⁿ",
      "ǹ g",
      "ā m",
      "t ó",
      "si áⁿ",
      "s è",
      "T a",
      "ka u",
      "bi ̍t",
      "u a̍h",
      "ú n",
      "t ńg",
      "s aⁿ",
      "k e",
      "o ͘",
      "a u",
      "p îng",
      "t íng",
      "k î",
      "p ē",
      "à nn",
      "su aⁿ",
      "â i",
      "p hu",
      "T si",
      "ku ân",
      "si o",
      "n á",
      "ki û",
      "mi â",
      "s ìng",
      "n ̄g",
      "b u",
      "Ta bi̍t",
      "ki ânn",
      "i ah",
      "ko ng",
      "t ì",
      "M ô͘",
      "ki âⁿ",
      "tshi ng",
      "iû ⁿ",
      "gu ā",
      "tsh e",
      "l ô͘",
      "t ah",
      "t a̍k",
      "b ú",
      "b at",
      "k ng",
      "ji ̍p",
      "t àng",
      "l ú",
      "ki ò",
      "I o",
      "l āu",
      "s în",
      "uá ⁿ",
      "si n",
      "tsh ù",
      "s ū",
      "si an",
      "m n̂g",
      "nn ̄g",
      "ái ⁿ",
      "l ông",
      "hi àn",
      "khu ànn",
      "Ts ú",
      "b îng",
      "a m",
      "p o̍k",
      "tsu í",
      "tshu ā",
      "sì n",
      "H it",
      "S ó͘",
      "si ̍t",
      "Iô tah",
      "ì n",
      "tsu ân",
      "î m",
      "si ng",
      "ts o̍k",
      "ki àn",
      "khu án",
      "ti ān",
      "ku n",
      "ku i",
      "t hu",
      "ki ù",
      "ka ng",
      "li ân",
      "ph áiⁿ",
      "h í",
      "u î",
      "n î",
      "Mô͘ se",
      "H u",
      "ni ̍h",
      "ti ú",
      "tsiū ⁿ",
      "ki aⁿ",
      "si o̍k",
      "b ān",
      "t ok",
      "è m",
      "l u",
      "i áu",
      "ji ân",
      "se ⁿ",
      "h o̍k",
      "tī ng",
      "A i",
      "ph ah",
      "ts ō",
      "a l",
      "hu ē",
      "t o",
      "g ī",
      "sa l",
      "ti āⁿ",
      "tshu ì",
      "bi a̍t",
      "Ê lú",
      "sal èm",
      "Êlú salèm",
      "b īng",
      "li áu",
      "thâ i",
      "j ī",
      "â u",
      "t o̍k",
      "a k",
      "si ōng",
      "a ̍p",
      "h ok",
      "tsh è",
      "li a̍t",
      "ts ó͘",
      "gi ̍p",
      "Ai gi̍p",
      "l îng",
      "l īng",
      "ki ̍p",
      "kh ah",
      "bi án",
      "i á",
      "l ó",
      "t ú",
      "hu ann",
      "h ē",
      "k ò͘",
      "b a̍k",
      "Ts e",
      "thi ⁿ",
      "gi a̍h",
      "khi ā",
      "h ô",
      "li a̍h",
      "M ̄",
      "t ô͘",
      "kh ó͘",
      "h ong",
      "u ì",
      "tsu n",
      "su n",
      "l é",
      "h ūn",
      "ki k",
      "ki m",
      "k è",
      "ti ̍t",
      "li ̍p",
      "á ng",
      "tshi t",
      "u n",
      "ts e",
      "s é",
      "si u",
      "mi ā",
      "lâ u",
      "ts óng",
      "pi ⁿ",
      "tiú ⁿ",
      "p ang",
      "tsi ap",
      "p ó",
      "h ù",
      "m á",
      "B a",
      "tsi o̍h",
      "i m",
      "ti ̍k",
      "ts ū",
      "g û",
      "ts áu",
      "Ts óng",
      "lu ̍t",
      "si t",
      "m uá",
      "T i",
      "g ō͘",
      "hu ān",
      "k ài",
      "p ī",
      "ki n",
      "si àu",
      "s îng",
      "si aⁿ",
      "tu âⁿ",
      "Tsi t",
      "a i",
      "p ò͘",
      "si at",
      "t aⁿ",
      "k íng",
      "lâ m",
      "hia nn",
      "p ún",
      "i âⁿ",
      "t ô",
      "si k",
      "tsi àn",
      "th e̍h",
      "l îm",
      "tsi ù",
      "s án",
      "t ò",
      "h îng",
      "l ah",
      "tsi ng",
      "ù n",
      "siú ⁿ",
      "k uáⁿ",
      "T ī",
      "tshu ē",
      "k ìng",
      "á nn",
      "tsú n",
      "si ong",
      "i ok",
      "p í",
      "b ī",
      "hu ī",
      "m n̄g",
      "H i",
      "hu an",
      "ts á",
      "siū ⁿ",
      "tsi òng",
      "phu àⁿ",
      "g în",
      "k ûn",
      "Guá n",
      "tsi u",
      "thi àⁿ",
      "K oh",
      "m óng",
      "tsi a",
      "ki at",
      "thi nn",
      "h āi",
      "tu è",
      "hu n",
      "Ti o̍h",
      "p ê",
      "b āng",
      "h ō",
      "l a̍h",
      "t âng",
      "ts uáⁿ",
      "kh ang",
      "I â",
      "tsi á",
      "hu í",
      "tshu n",
      "T siū",
      "S àu",
      "b é",
      "l ūn",
      "p ah",
      "tsi âⁿ",
      "l eh",
      "Sàu lô",
      "li m",
      "l ē",
      "k áng",
      "h ái",
      "ko p",
      "Iâ kop",
      "p ò",
      "gi a̍p",
      "gu ân",
      "k à",
      "A m",
      "sa k",
      "t û",
      "thu ân",
      "T hi",
      "tsi ú",
      "u ⁿ",
      "kh ò",
      "pi àn",
      "k ái",
      "si ann",
      "i ân",
      "h ng",
      "kh ùn",
      "b ah",
      "ts ûn",
      "tsi ̍p",
      "ti âu",
      "ku í",
      "ts ài",
      "h ū",
      "s āi",
      "k uán",
      "G u",
      "â m",
      "kh òng",
      "gu ān",
      "t āng",
      "T aⁿ",
      "kh áu",
      "su î",
      "ī ⁿ",
      "hu eh",
      "p ak",
      "b ûn",
      "t é",
      "Hu i",
      "j î",
      "ji o̍k",
      "li ̍k",
      "pu t",
      "k ín",
      "th āi",
      "kha k",
      "b ō͘",
      "p àng",
      "g ín",
      "pi ng",
      "bú lông",
      "h āng",
      "k ò",
      "th a",
      "kì nn",
      "Gu ān",
      "ka k",
      "t a",
      "si ā",
      "t huat",
      "tsi k",
      "l o̍k",
      "tsu ā",
      "S ìng",
      "p hi",
      "p a̍t",
      "sí m",
      "ng ó͘",
      "ti án",
      "l a̍t",
      "p ái",
      "t n̂g",
      "hi oh",
      "khu ì",
      "bô ng",
      "Ô ng",
      "th è",
      "m ê",
      "s ú",
      "h n̂g",
      "A lông",
      "p uē",
      "t á",
      "B i",
      "S în",
      "l áu",
      "kh o͘",
      "gu e̍h",
      "L ē",
      "s ǹg",
      "b a",
      "ph ài",
      "h n̄g",
      "hi ān",
      "Tsi ah",
      "Lē bī",
      "t ō",
      "Thi ⁿ",
      "pi áⁿ",
      "ki ong",
      "Á n",
      "L âng",
      "su ah",
      "tshiú ⁿ",
      "t ō͘",
      "i ng",
      "sa i",
      "si au",
      "i óng",
      "ku a",
      "Ba búlông",
      "p e̍h",
      "th àn",
      "tsh â",
      "tsh ân",
      "tsi ok",
      "hu h",
      "hu ah",
      "pi k",
      "Ts hi",
      "kh ó",
      "tshi ánn",
      "J în",
      "k í",
      "k uī",
      "k īn",
      "T uì",
      "th ô͘",
      "N ā",
      "lī sū",
      "Hui līsū",
      "p eh",
      "p ài",
      "û ⁿ",
      "th é",
      "si ù",
      "Iô sé",
      "Iôsé huh",
      "p âi",
      "u ân",
      "lí ng",
      "lô móng",
      "sè ⁿ",
      "Só͘ lômóng",
      "ts âi",
      "hu āi",
      "th ong",
      "p ō͘",
      "s ái",
      "Hu â",
      "ti ám",
      "h āu",
      "G i",
      "tu ī",
      "K a",
      "t ò͘",
      "h ông",
      "l î",
      "tshi a",
      "P i",
      "ts ín",
      "u àn",
      "la ̍k",
      "b uē",
      "h ûn",
      "ka i",
      "ku aⁿ",
      "T h",
      "b ōng",
      "t ang",
      "si á",
      "pê ⁿ",
      "k ū",
      "ti ōng",
      "hi uⁿ",
      "ti ām",
      "si ông",
      "A bu",
      "hi án",
      "tsh īng",
      "tsh áu",
      "lah àm",
      "Abu lahàm",
      "ts î",
      "ki an",
      "tshi ong",
      "bu ̍t",
      "m uē",
      "kh àu",
      "kā ng",
      "L án",
      "tshe ⁿ",
      "s ò͘",
      "t ông",
      "hu è",
      "ku ì",
      "li ām",
      "p âng",
      "u a̍t",
      "ù ⁿ",
      "i ú",
      "ku an",
      "tshi ah",
      "bu é",
      "ki ông",
      "tshiū ⁿ",
      "s ài",
      "tsì n",
      "si ó",
      "su an",
      "ts û",
      "ph û",
      "P áu",
      "l ān",
      "tsi óng",
      "Páu lô",
      "S ī",
      "tsi áu",
      "pu àⁿ",
      "ph a",
      "ka t",
      "bô ͘",
      "t ng",
      "H iah",
      "u an",
      "tī n",
      "Ki àn",
      "t n̄g",
      "tsò ng",
      "gi ̍k",
      "phu à",
      "T u",
      "n eh",
      "siú ah",
      "Io siúah",
      "k ú",
      "tsh ú",
      "i ông",
      "k ó͘",
      "hi at",
      "ts eh",
      "th ìng",
      "pu e",
      "k àng",
      "tsi àⁿ",
      "K àu",
      "thi āu",
      "t àn",
      "I a",
      "L a̍h",
      "g ōng",
      "tshi ûⁿ",
      "pi a̍t",
      "K iû",
      "ti k",
      "ni á",
      "m u",
      "ti ng",
      "at tò͘",
      "Pi attò͘",
      "b ín",
      "k uá",
      "s àn",
      "hi ng",
      "hu i",
      "kh ò͘",
      "tsh ì",
      "hi âⁿ",
      "si â",
      "tsu a̍t",
      "ph ang",
      "t í",
      "b âi",
      "h īⁿ",
      "i ù",
      "ts ān",
      "ti àu",
      "pu âⁿ",
      "bu ah",
      "t oh",
      "th î",
      "tshi m",
      "E hu",
      "ts ù",
      "ki ̍k",
      "B ô",
      "u è",
      "L e",
      "ts īn",
      "ts íng",
      "li û",
      "hu ê",
      "kh àm",
      "tsa l",
      "tsh òng",
      "Ts a",
      "ji ok",
      "thi ah",
      "h á",
      "khu ah",
      "t òng",
      "í m",
      "A n",
      "ki ōng",
      "H e",
      "l tàn",
      "n ân",
      "o l",
      "ti àm",
      "gi ām",
      "Io ltàn",
      "h ú",
      "hu a̍t",
      "ku t",
      "T ng",
      "t ōng",
      "th ó",
      "Mô͘ ap",
      "si ah",
      "ti āu",
      "pi ān",
      "P h",
      "th an",
      "h ún",
      "j īn",
      "khu ài",
      "ku é",
      "tsh eh",
      "p o͘",
      "si à",
      "k ó",
      "l e",
      "tsh a̍t",
      "p ān",
      "kh el",
      "khi k",
      "pê nn",
      "M i",
      "k áu",
      "b a̍t",
      "s íng",
      "su à",
      "su àⁿ",
      "mi ah",
      "la ̍p",
      "n â",
      "t a̍h",
      "ng ō͘",
      "hu e",
      "tu àn",
      "su í",
      "hu a",
      "la im",
      "s uán",
      "ti an",
      "siu l",
      "ki āⁿ",
      "Ts ì",
      "kì ⁿ",
      "A h",
      "T ē",
      "kh e",
      "Ehu laim",
      "N e",
      "p āi",
      "i à",
      "ki àm",
      "k é",
      "lâ n",
      "si ám",
      "i ô",
      "Bi ān",
      "K ám",
      "h ā",
      "pu n",
      "phu e",
      "i u",
      "ò͘ ⁿ",
      "m e",
      "Ts è",
      "b í",
      "S a",
      "kh ǹg",
      "ka ⁿ",
      "s ūn",
      "tó m",
      "phu ê",
      "i àu",
      "ki au",
      "K ā",
      "i áⁿ",
      "i ám",
      "Si áⁿ",
      "h a̍k",
      "khi àm",
      "A siul",
      "h a̍p",
      "u el",
      "é ⁿ",
      "hu ì",
      "kh an",
      "Biān iám",
      "Biāniám ín",
      "ts ok",
      "hi aⁿ",
      "pē ⁿ",
      "si ̍p",
      "thi h",
      "sa p",
      "Ki áⁿ",
      "m î",
      "si h",
      "th àm",
      "li ān",
      "Ba al",
      "S am",
      "h at",
      "th ó͘",
      "tsî nn",
      "N á",
      "th îng",
      "tshi ùⁿ",
      "pi àⁿ",
      "n iû",
      "th ok",
      "ku àn",
      "A lâm",
      "H a",
      "S u",
      "T o̍k",
      "in n",
      "phi ̍h",
      "Sam uel",
      "E li",
      "b ūn",
      "p au",
      "th àu",
      "gi ân",
      "thu n",
      "b o̍k",
      "Am móng",
      "P a",
      "b ó",
      "i o",
      "Io ap",
      "th au",
      "kì m",
      "li āu",
      "lu ān",
      "K al",
      "p a̍k",
      "s àng",
      "ts à",
      "ng ē",
      "B e",
      "E lí",
      "t a̍t",
      "ts ng",
      "khi n",
      "A s",
      "Í sak",
      "ts at",
      "tsh ī",
      "ph ak",
      "N a",
      "T su",
      "k eh",
      "tsi án",
      "tsi ām",
      "pu a̍h",
      "b e̍h",
      "t âi",
      "gi óng",
      "t ap",
      "t am",
      "ki a",
      "l uī",
      "kh ún",
      "tu i",
      "tse kia",
      "Hi tsekia",
      "l o",
      "s ûn",
      "ji ah",
      "B ān",
      "b o",
      "b íng",
      "h ōng",
      "i ̍k",
      "ts ong",
      "hu âi",
      "i k",
      "tsh ong",
      "M ā",
      "tsi ̍h",
      "li ̍h",
      "L ô",
      "M án",
      "b ong",
      "á se",
      "Mán áse",
      "G a",
      "hu āⁿ",
      "Ts ù",
      "Gi lia̍t",
      "kuá i",
      "k àm",
      "ki à",
      "li ng",
      "gi âm",
      "J iân",
      "S e",
      "h áu",
      "hu t",
      "tsh ái",
      "ná than",
      "Jiân āu",
      "h o",
      "i au",
      "t ài",
      "Ā u",
      "ts âu",
      "tsh íng",
      "L i",
      "s oh",
      "khu a",
      "ku ah",
      "Eli iah",
      "h ām",
      "k ún",
      "tsi ó",
      "phi an",
      "H am",
      "g a̍k",
      "si ān",
      "Ts ìng",
      "pi ̍k",
      "kha i",
      "tsi ânn",
      "kh íng",
      "su a",
      "khi óng",
      "tsî ⁿ",
      "p ûn",
      "Io náthan",
      "p ó͘",
      "p sa",
      "Α psa",
      "khu t",
      "tsu h",
      "lô m",
      "Αpsa lôm",
      "S è",
      "u āⁿ",
      "hi óng",
      "si ̍k",
      "khi oh",
      "Am í",
      "P u",
      "p ō",
      "p hiah",
      "si âng",
      "H ō͘",
      "n iûⁿ",
      "su h",
      "K óng",
      "tsi p",
      "si ang",
      "As ah",
      "b ê",
      "h î",
      "ts âng",
      "tsh ò",
      "Hu a",
      "i an",
      "j ū",
      "s uá",
      "s àu",
      "u h",
      "thi an",
      "Tshi n",
      "K e",
      "b û",
      "tsi ànn",
      "ka m",
      "ku ai",
      "ji a̍t",
      "p á",
      "ki ám",
      "th òng",
      "sī n",
      "ku à",
      "ni ā",
      "M e",
      "h o͘",
      "li a̍p",
      "kha u",
      "Am ô͘",
      "g í",
      "t ó͘",
      "ū ⁿ",
      "̍ uh",
      "tshu e",
      "tsi áng",
      "tshu ah",
      "bi h",
      "U ī",
      "ti óng",
      "ti ùⁿ",
      "Bi a̍t",
      "kuai ⁿ",
      "si û",
      "th í",
      "tsh at",
      "lī a",
      "K î",
      "M a",
      "k hia",
      "n ah",
      "p an",
      "th ê",
      "Ah ap",
      "E tóm",
      "L âi",
      "t în",
      "t ìng",
      "hu án",
      "lí ah",
      "Elí siah",
      "h àn",
      "sī ng",
      "tsh am",
      "li o̍k",
      "th a̍k",
      "Tshi ánn",
      "p án",
      "ts éⁿ",
      "th ǹg",
      "tshi ò",
      "i àn",
      "tsh n̂g",
      "ji a",
      "khi â",
      "u i",
      "hi m",
      "A bi",
      "A má",
      "P í",
      "g î",
      "j ím",
      "k ù",
      "p ì",
      "p ìng",
      "t áⁿ",
      "Ts h",
      "pu ê",
      "S ím",
      "b e",
      "p kat",
      "t àu",
      "ne tsal",
      "mu â",
      "Ne pkat",
      "Nepkat netsal",
      "s at",
      "hu ân",
      "th áu",
      "ku at",
      "Pa lân",
      "g āng",
      "k áⁿ",
      "m ī",
      "p hiàn",
      "ki ah",
      "th am",
      "h û",
      "t î",
      "tshi at",
      "khu ân",
      "li ông",
      "b î",
      "pu î",
      "Tsu ân",
      "G e",
      "K uan",
      "k àⁿ",
      "tsi ong",
      "ti ân",
      "ko ͘",
      "g îng",
      "n ái",
      "tsh î",
      "an i",
      "Tsi àu",
      "al a̍h",
      "kua inn",
      "Pu âⁿ",
      "b óng",
      "h òng",
      "tsh au",
      "Ts ò",
      "ph ì",
      "thu àⁿ",
      "mu í",
      "E s",
      "p o̍h",
      "Amô͘ lī",
      "Es áu",
      "T a̍k",
      "b el",
      "i ā",
      "hi a̍t",
      "tsh a",
      "tsì nn",
      "khe ⁿ",
      "A l",
      "p òng",
      "u í",
      "hu ā",
      "tsh ìn",
      "tsu â",
      "S at",
      "i ām",
      "s ok",
      "t ām",
      "ts īng",
      "Sím òng",
      "L ū",
      "i o̍k",
      "k ńg",
      "t îng",
      "Ī ng",
      "hi áu",
      "tshi uⁿ",
      "Hi ann",
      "Tu ā",
      "T ani",
      "tsu an",
      "bi ān",
      "Ph áiⁿ",
      "Mi ka",
      "Tani el",
      "J i",
      "h a",
      "h â",
      "p a",
      "ts el",
      "kh eh",
      "th ài",
      "khu at",
      "thi àu",
      "sa nn",
      "G a̍t",
      "L āu",
      "l ê",
      "p în",
      "hi ̍k",
      "tshi áⁿ",
      "A p",
      "K hí",
      "t ûn",
      "ki p",
      "Si a",
      "tsi ò",
      "ti au",
      "kh ong",
      "li am",
      "T ì",
      "n òng",
      "th eh",
      "tshi k",
      "khia m",
      "O ͘",
      "g âu",
      "s óng",
      "ji áu",
      "Ah a",
      "g al",
      "n u",
      "kh o",
      "th el",
      "th ái",
      "su è",
      "Sī khiàm",
      "' ,",
      "K eh",
      "S âm",
      "t au",
      "hi ong",
      "thâ ng",
      "thu a",
      "Lū biān",
      "Sâm sóng",
      "M â",
      "Si m",
      "Tu à",
      "lo ̍t",
      "Mâ líah",
      "i l",
      "ts oh",
      "tsi o",
      "su t",
      "thi u",
      "bu h",
      "k ông",
      "tsi m",
      "tsu âⁿ",
      "el a̍h",
      "bi āu",
      "phu āⁿ",
      "J î",
      "M í",
      "T àn",
      "e nn",
      "n el",
      "ph è",
      "Be thel",
      "A bú",
      "K ah",
      "M ol",
      "h īng",
      "ti kiah",
      "kh îm",
      "tsh ng",
      "pi áu",
      "ni ah",
      "Io buh",
      "Tse tikiah",
      "té kái",
      "Abú lâm",
      "Mol tékái",
      "K u",
      "b al",
      "k òng",
      "Si at",
      "su ̍t",
      "Mí tiân",
      "B ûn",
      "H ô",
      "I sái",
      "b an",
      "b uán",
      "si óng",
      "th àng",
      "su e",
      "pi ah",
      "Hi at",
      "Tshi áⁿ",
      "nu ā",
      "Isái ah",
      "B el",
      "n ńg",
      "p īng",
      "Ê līa",
      "hu aⁿ",
      "tshi au",
      "khi ân",
      "tì m",
      "Ap nel",
      "Êlīa tsal",
      "P e",
      "t ann",
      "si ak",
      "ti âⁿ",
      "kh ū",
      "th ah",
      "ku ài",
      "tsu ì",
      "iú ⁿ",
      "Tu lô",
      "La̍h ban",
      "me n",
      "i ū",
      "t ê",
      "t ong",
      "hi ù",
      "tshi oh",
      "Ts á",
      "bi ō",
      "pu e̍h",
      "jī m",
      "He búlông",
      "S í",
      "s ám",
      "ti ūⁿ",
      "ki o̍k",
      "tsh éⁿ",
      "Ham án",
      "G î",
      "N ó͘",
      "ti ûⁿ",
      "li u",
      "khi ok",
      "thu í",
      "siu ⁿ",
      "Gî tióng",
      "K in",
      "n āi",
      "Ê sut",
      "ì m",
      "hi ám",
      "tu a̍t",
      "sī m",
      "Sat án",
      "Êsut el",
      "G ī",
      "K h",
      "t ín",
      "si a",
      "ti uⁿ",
      "th óng",
      "tsh a̍k",
      "tuā ⁿ",
      "M á",
      "S o͘",
      "k ē",
      "l ûn",
      "ts àn",
      "th ún",
      "tshi an",
      "tsh ìng",
      "M al",
      "m el",
      "p n̄g",
      "ts ông",
      "si ânn",
      "si áng",
      "th at",
      "li âm",
      "Ba siáng",
      "tha lí",
      "Ji ̍t",
      "K ai",
      "T o",
      "g ê",
      "l ún",
      "A hi",
      "K o",
      "b ū",
      "i ōng",
      "l an",
      "t óng",
      "t àⁿ",
      "tsh ài",
      "li ōng",
      "ph âng",
      "ph o͘",
      "pu ān",
      "S uî",
      "j ú",
      "l ām",
      "m e̍h",
      "n à",
      "t ái",
      "u at",
      "ts ô",
      "tsi oh",
      "E lī",
      "h ān",
      "l uán",
      "ts ó",
      "si oh",
      "th ai",
      "khu à",
      "tsh àu",
      "tse ⁿ",
      "Nó͘ ah",
      "i āu",
      "j ua̍h",
      "mā u",
      "bi áu",
      "Ki ù",
      "phu è",
      "Gi l",
      "Amá li̍k",
      "G at",
      "T ú",
      "p é",
      "p ok",
      "s ò",
      "t áu",
      "Si âⁿ",
      "Si tòng",
      "pi ak",
      "T î",
      "t án",
      "ts ê",
      "tsh ám",
      "li h",
      "li án",
      "ji á",
      "la ̍uh",
      "khi áu",
      "So͘ tóm",
      "K ú",
      "S ala̍h",
      "b ō",
      "h èm",
      "i o̍h",
      "s ún",
      "ki ap",
      "th ì",
      "gi â",
      "lé hèm",
      "Bia̍t léhèm",
      "Amá tsiah",
      "H an",
      "I sim",
      "N n̄g",
      "a el",
      "s an",
      "u ah",
      "ts àu",
      "ph īⁿ",
      "pu è",
      "o͘ t",
      "Isim ael",
      "B eh",
      "K ûn",
      "K uè",
      "h óng",
      "k ǹg",
      "n é",
      "s ng",
      "t ánn",
      "ù nn",
      "kh è",
      "Si an",
      "tshi ùnn",
      "khu eh",
      "Ts í",
      "la k",
      "Ki ng",
      "Tsi ̍t",
      "L ó",
      "l ám",
      "s ó",
      "hi òng",
      "ti h",
      "kh à",
      "Si o̍k",
      "su ī",
      "li âu",
      "ph îng",
      "bi ̍k",
      "Ló toh",
      "H ó",
      "i ūⁿ",
      "m ē",
      "ts ân",
      "hu î",
      "ti ū",
      "kh é",
      "tsh ó",
      "ph ō",
      "ph ín",
      "khi ng",
      "bu a̍t",
      "Li a̍t",
      "A khà",
      "B ala̍h",
      "H uē",
      "U līa",
      "l uî",
      "p e",
      "tshi u",
      "tshi ân",
      "kā u",
      "ku ̍t",
      "Ts hit",
      "ph ā",
      "ph ûn",
      "pha ̍uh",
      "Gil gal",
      "Akhà tsuh",
      "K ì",
      "K hó",
      "e tsel",
      "n o",
      "t îm",
      "tsi àm",
      "th ò͘",
      "khu an",
      "mi h",
      "se ̍h",
      "thu î",
      "T āi",
      "l àu",
      "ts ūn",
      "hu thalí",
      "ki ā",
      "ki áu",
      "khu á",
      "el siah",
      "Ts o",
      "bi at",
      "Th ang",
      "Ph elsiah",
      "le ̍p",
      "Ná huthalí",
      "Aha tsiah",
      "Náhuthalí m",
      "G ōng",
      "T e",
      "b án",
      "b ak",
      "o t",
      "t âm",
      "） ,",
      "tu ān",
      "tsh ap",
      "Ná than",
      "Ham at",
      "phā inn",
      "I t",
      "T û",
      "h e",
      "p ân",
      "î ⁿ",
      "si bóng",
      "th e",
      "hia u",
      "Hi lâm",
      "Th âu",
      "He sibóng",
      "Su à",
      "huâi ⁿ",
      "I á",
      "K hu",
      "P îng",
      "S ela̍h",
      "l è",
      "t ak",
      "tsi am",
      "Si hông",
      "ka p",
      "tsh o͘",
      "ke ⁿ",
      "Th am",
      "K ok",
      "S ù",
      "t à",
      "t ǹg",
      "hi n",
      "ti o̍k",
      "Tsi n",
      "Le ah",
      "A to",
      "H at",
      "L iân",
      "S al",
      "h a̍h",
      "p ùn",
      "p hiau",
      "s û",
      "si a̍h",
      "ti òng",
      "th án",
      "tshi àⁿ",
      "khu àn",
      "thi ànn",
      "ph ó͘",
      "Iô ná",
      "pu h",
      "L ap",
      "S ìn",
      "i âm",
      "k âng",
      "m ah",
      "m ô͘",
      "hi ú",
      "si àn",
      "ti ah",
      "ki ánn",
      "Si mi",
      "su il",
      "ka l",
      "el a",
      "pi t",
      "Am no",
      "lo t",
      "Se il",
      "Aha suil",
      "Simi ān",
      "Amno n",
      "Ahasuil ó͘",
      "A tsa",
      "A him",
      "E l",
      "G o",
      "U tsi",
      "h ì",
      "l ōng",
      "p è",
      "ī nn",
      "Si n",
      "tshu àⁿ",
      "ji û",
      "ph ò",
      "kha m",
      "o͘ h",
      "lu ân",
      "tá lia̍h",
      "Be nái",
      "Ge tália̍h",
      "Mika iah",
      "Benái ah",
      "H o",
      "g ō",
      "g āi",
      "h ap",
      "m ó͘",
      "o ol",
      "p ū",
      "ts ōng",
      "si án",
      "hu ánn",
      "th al",
      "pē nn",
      "thu h",
      "hù n",
      "tsiú ⁿ",
      "Sia huánn",
      "Khó la̍h",
      "Tham al",
      "B ē",
      "N ùn",
      "P al",
      "h ah",
      "p o",
      "t at",
      "Â ng",
      "） .",
      "hi o̍h",
      "ki a̍p",
      "thi au",
      "gu î",
      "pu aⁿ",
      "bu â",
      "Ba siah",
      "Koh at",
      "Ná tap",
      "tau h",
      "Atsa líah",
      "A la̍h",
      "N ám",
      "S ì",
      "a thal",
      "l āng",
      "ts a̍h",
      "tsi áⁿ",
      "kh îⁿ",
      "Si ú",
      "th áⁿ",
      "tshi òng",
      "Ts hut",
      "ph áng",
      "gi âu",
      "Ta l",
      "As el",
      "Abi athal",
      "Sí bah",
      "Ato nî",
      "Ala̍h bah",
      "A t",
      "G ín",
      "H ū",
      "K el",
      "L u",
      "L ù",
      "h m̄",
      "m é",
      "p íng",
      "t an",
      "tsi h",
      "hi a̍h",
      "hu à",
      "uá nn",
      "tsh āi",
      "Hu ān",
      "ai l",
      "Pi k",
      "E tsu",
      "N î",
      "T ong",
      "g îm",
      "h âng",
      "h īnn",
      "n ông",
      "o sih",
      "s òng",
      "s ela̍h",
      "ts o͘",
      "hi an",
      "si sih",
      "kh ài",
      "Si ū",
      "Si sela̍h",
      "th ò",
      "ko l",
      "ka ̍k",
      "li ah",
      "ph īng",
      "ph āng",
      "lu í",
      "iá nn",
      "Th ê",
      "Ne bat",
      "Li p",
      "Abi sai",
      "Utsi iah",
      "Pal osih",
      "Tal sisih",
      "Atonî iah",
      "E huah",
      "I u",
      "I tsa",
      "h âm",
      "l kí",
      "m ot",
      "t âu",
      "á tsuh",
      "í ⁿ",
      "ki óng",
      "Si u",
      "li ó",
      "tshu i",
      "tsa el",
      "gi o̍k",
      "Ié tse",
      "khi ú",
      "oh tsuh",
      "Hi lkí",
      "Bô ohtsuh",
      "Ha tsael",
      "bo t",
      "tî ⁿ",
      "Sim í",
      "Mal ki",
      "Etsu la̍h",
      "Ehuah átsuh",
      "Itsa kal",
      "Iétse bel",
      "Hilkí iah",
      ") ,",
      "B în",
      "G û",
      "I k",
      "K ìng",
      "K un",
      "U á",
      "h ô͘",
      "m o͘",
      "o mih",
      "p hué",
      "s eh",
      "t o͘",
      "ts ám",
      "hi àm",
      "ki u",
      "su ê",
      "su at",
      "li ú",
      "ph ú",
      "tshù n",
      "phi aⁿ",
      "Th e",
      "Ha gal",
      "Na bal",
      "Na bot",
      "Na omih",
      "B í",
      "L ô͘",
      "N i",
      "j ūn",
      "k án",
      "u e",
      "ts uán",
      "ku âⁿ",
      "ku ann",
      "thi at",
      "ph àu",
      "pu ânn",
      "kha ̍p",
      "thu ā",
      "Gu ā",
      "A ki",
      "A bel",
      "K aⁿ",
      "T sim",
      "h ò͘ⁿ",
      "j ah",
      "k ō",
      "m ài",
      "p à",
      "t ân",
      "u ai",
      "hu l",
      "hu el",
      "ti ô",
      "ki ann",
      "Si àu",
      "li k",
      "at etsel",
      "la p",
      "sì ⁿ",
      "khi uⁿ",
      "ni h",
      "o͘ k",
      "Thi aⁿ",
      "Thi àⁿ",
      "Bi an",
      "Amô͘ su",
      "pì ⁿ",
      "Kh ì",
      "Hat atetsel",
      "At ám",
      "Kel sióng",
      "Aki si",
      "A sit",
      "K hióng",
      "L âm",
      "M ela",
      "T hong",
      "h ang",
      "h âi",
      "à p",
      "ts ō͘",
      "hi ā",
      "hi âm",
      "ti ánn",
      "li àp",
      "tshu án",
      "Am mo͘",
      "phi ânn",
      "khia u",
      "Han an",
      "Khu ànn",
      "Asit o͘t",
      "Mela lih",
      "Ammo͘ la̍h",
      "' .",
      "A hit",
      "H el",
      "K it",
      "M a̍k",
      "b ái",
      "o huel",
      "u m",
      "é li̍k",
      "ts áiⁿ",
      "ti nn",
      "ki sih",
      "tu aⁿ",
      "tu an",
      "tsh an",
      "ph ô͘",
      "Ki ám",
      "Th a",
      "La̍h kisih",
      "mu ê",
      "Mika l",
      "Ahi iah",
      "Ahi kam",
      "Ahim éli̍k",
      "pè ⁿ",
      "Nám ān",
      "Ahit ohuel",
      "' ?",
      "E tiân",
      "H ann",
      "M an",
      "P ak",
      "a si",
      "a ̍uh",
      "g e",
      "n í",
      "o uah",
      "u l",
      "ts în",
      "ts ang",
      "ng a̍uh",
      "tshi am",
      "su eh",
      "su ann",
      "khu e",
      "pi an",
      "ái ah",
      "pu à",
      "Ki ânn",
      "Tsi ong",
      "Hu e",
      "Ti k",
      "Thi an",
      "siù ⁿ",
      "le p",
      "Ne thán",
      "O͘ k",
      "Sim áiah",
      "Má kah",
      "Hann ah",
      "Man ouah",
      "Nethán iah",
      "A lap",
      "B al",
      "G eh",
      "I ok",
      "I ûⁿ",
      "S I",
      "S î",
      "T í",
      "T eh",
      "T suí",
      "a tsih",
      "g ail",
      "j û",
      "n o͘h",
      "t al",
      "î nn",
      "ts é",
      "ts ām",
      "tsi ān",
      "hi ân",
      "hi áng",
      "kh ám",
      "ko t",
      "tsh âi",
      "li p",
      "thi a̍p",
      "Ts a̍p",
      "Ts huā",
      "tsì ⁿ",
      "khi án",
      "Tsi a̍h",
      "Am a",
      "Abi gail",
      "Geh atsih",
      "A k",
      "H ol",
      "I m",
      "I áu",
      "K ng",
      "K ong",
      "L ī",
      "L óng",
      "L im",
      "M at",
      "N el",
      "O m",
      "P ó",
      "P eh",
      "S é",
      "g ú",
      "g án",
      "g ái",
      "i a",
      "i â",
      "i lah",
      "k hit",
      "n ó͘",
      "t e",
      "À m",
      "é nn",
      "Τ ī",
      "Τ io̍h",
      "hu àn",
      "kh în",
      "li oh",
      "tsu è",
      "ph òng",
      "bi iah",
      "gi a̍t",
      "pu ah",
      "Ki m",
      "phu ì",
      "Tsi k",
      "Tsi aⁿ",
      "tse tik",
      "Thi nn",
      "Tsu a̍t",
      "Ke ilah",
      "Abi iah",
      "Tsh ám",
      "To biiah",
      "Sal ái",
      "Malki tsetik",
      "Hanan iah",
      "Om lī",
      "A thalí",
      "B oh",
      "H ái",
      "I û",
      "I tham",
      "I SI",
      "K uán",
      "M ak",
      "S àn",
      "a se",
      "k hiah",
      "n a",
      "n ó",
      "À i",
      "ts ah",
      "tsi aⁿ",
      "ti áⁿ",
      "Si â",
      "tsh énn",
      "Ts ai",
      "ph o",
      "ph o̍k",
      "Hu t",
      "phi ⁿ",
      "mu a",
      "Ph ah",
      "Mi k",
      "Su aⁿ",
      "Se bah",
      "Ma ase",
      "Tsh e",
      "Lù thuh",
      "Ama sa",
      "Athalí iah",
      "Boh ol",
      "Itham al",
      "nó m",
      "Maase iah",
      "G â",
      "H āi",
      "K an",
      "K ò͘",
      "M uí",
      "P ē",
      "T ô",
      "T ang",
      "h îm",
      "i àⁿ",
      "l at",
      "m ú",
      "m an",
      "p hit",
      "ts ùn",
      "ts ool",
      "hi ông",
      "si ok",
      "su ta",
      "li el",
      "at àn",
      "Ts îng",
      "ph à",
      "ph ìng",
      "bi l",
      "bu l",
      "bu tsal",
      "lú m",
      "Io ̍p",
      "tse ba",
      "Ba tseba",
      "Iâ m",
      "ta siá",
      "Th e̍h",
      "hui bo",
      "khe lip",
      "Ne butsal",
      "Ha tsool",
      "Se nah",
      "Pu t",
      "Asah el",
      "Me huibo",
      "Al tasiá",
      "Lip nah",
      "Nebutsal atàn",
      "Senah khelip",
      "Mehuibo siat",
      "Altasiá suta",
      "A g",
      "H ap",
      "K ui",
      "M n̂g",
      "O l",
      "S aⁿ",
      "S ai",
      "e ah",
      "g o͘",
      "k á",
      "m āi",
      "m án",
      "t ūn",
      "tsi ông",
      "si òng",
      "ti ông",
      "ti a̍h",
      "kh óng",
      "tu î",
      "su ànn",
      "ku āⁿ",
      "tsh ah",
      "tshu a̍h",
      "ph ê",
      "ph àn",
      "gi ám",
      "Ki ò",
      "Hu sia",
      "Ti l",
      "Ti ān",
      "Bi án",
      "Bi at",
      "Gi a̍h",
      "Ehu lóng",
      "Kal eah",
      "Ham ool",
      "Ge tsel",
      "Sia lúm",
      "Lu ̍t",
      "Ag ak",
      "B a̍k",
      "E la̍h",
      "H âm",
      "I óng",
      "I âⁿ",
      "K ó͘",
      "K ol",
      "M am",
      "P ing",
      "T íng",
      "T sun",
      "g a",
      "h àu",
      "k ô͘",
      "l in",
      "l e̍h",
      "m h",
      "m o͘t",
      "s ô",
      "s a̍h",
      "hi k",
      "ti a",
      "ti ⁿ",
      "lí ám",
      "Si o",
      "th în",
      "th ūn",
      "tshi û",
      "tshi ⁿ",
      "tsh ò͘",
      "tsh ai",
      "li àn",
      "Ts ē",
      "Ts o͘",
      "Ts al",
      "Ts hù",
      "pu āⁿ",
      "thu i",
      "Gu ân",
      "phi k",
      "Bi l",
      "He mán",
      "Mi líám",
      "Elí ap",
      "Tsh a",
      "phì ⁿ",
      "Pe n",
      "Pe kah",
      "Sé mh",
      "Mam lē",
      ") .",
      "1 6",
      "B e̍h",
      "G o͘k",
      "H ong",
      "I ā",
      "K hiā",
      "L ú",
      "L a̍k",
      "L âu",
      "N g",
      "N ê",
      "O ba",
      "P în",
      "P hul",
      "S ū",
      "S Ph",
      "T ó",
      "T im",
      "U a",
      "U àn",
      "U tsà",
      "a kim",
      "g it",
      "h án",
      "j íⁿ",
      "l ok",
      "p ô",
      "p ô͘",
      "u t",
      "â tsu",
      "Τ aⁿ",
      "hu â",
      "tī ⁿ",
      "Si siak",
      "th ng",
      "tshi ̍h",
      "tsh àng",
      "ji óng",
      "Ts háu",
      "ph âu",
      "pi ànn",
      "gi at",
      "hia ̍p",
      "Ki si",
      "Ki au",
      "ni am",
      "sù n",
      "Tsi áng",
      "lé iù",
      "Bi k",
      "Th o",
      "Ha gái",
      "Eli akim",
      "Tsu ē",
      "bo ol",
      "Ke nî",
      "Tsh ân",
      "Han un",
      "Ahim âtsu",
      "hì ⁿ",
      "Ol nân",
      "Nê léiù",
      "Oba tiah",
      "A b",
      "A ná",
      "B K",
      "E gú",
      "H n̂g",
      "I an",
      "K ang",
      "L îng",
      "L īng",
      "N im",
      "S an",
      "X X",
      "g ū",
      "g ah",
      "k ànn",
      "l ó͘",
      "l ong",
      "l ò͘",
      "m ái",
      "t āu",
      "t ún",
      "u a",
      "Ì n",
      "Í ng",
      "si hul",
      "ti u",
      "kh ng",
      "kh ok",
      "ki l",
      "Si ̍t",
      "th a̍h",
      "th ot",
      "li ù",
      "ji ám",
      "thi ám",
      "thi ap",
      "Ts ō",
      "Ts ū",
      "Ts ûn",
      "ph àⁿ",
      "ph a̍k",
      "bi ah",
      "sa m",
      "Ki âⁿ",
      "kî ⁿ",
      "phu t",
      "Hu ul",
      "lu t",
      "hui l",
      "Ehu t",
      "Pa sihul",
      "Tsu è",
      "Ke tal",
      "Ma kil",
      "Ta̍k pe",
      "bal lat",
      "Kh al",
      "né m",
      "El kán",
      "Aná thot",
      "Egú lóng",
      "San ballat",
      "Ta̍kpe neh",
      "Elkán ah",
      ". .",
      "1 1",
      "A láu",
      "B o",
      "B é",
      "B at",
      "G el",
      "H ûn",
      "I ng",
      "K uàn",
      "K uí",
      "K hùn",
      "L a",
      "M ê",
      "N ah",
      "S ela",
      "U n",
      "h ó͘",
      "h în",
      "i án",
      "i am",
      "l în",
      "l o͘t",
      "n o͘k",
      "p î",
      "s á",
      "s ong",
      "t â",
      "Α ń",
      "Τ uì",
      "si am",
      "si a̍p",
      "kh á",
      "ki âm",
      "Si ap",
      "th ô",
      "in at",
      "tsh oh",
      "li ò",
      "li o̍h",
      "tsu t",
      "Ts în",
      "Ts ap",
      "ph áu",
      "pi ó",
      "pu ̍t",
      "Ki sióng",
      "ni ú",
      "té sih",
      "Tu è",
      "Ehu la̍t",
      "le miah",
      "siul ám",
      "Elí asi",
      "Elí siam",
      "Ke tésih",
      "Me siulám",
      "ho͘ h",
      "be si",
      "It tó͘",
      "ia besi",
      "Ab inat",
      "Aláu nah",
      "Gel al",
      "Nah asi",
      "Sela iah",
      "Siap ná",
      "Elíasi p",
      "Elísiam ah",
      "Abinat ap",
      "A liel",
      "B o̍k",
      "K ín",
      "L āi",
      "L XX",
      "M ah",
      "P uē",
      "U a̍h",
      "b á",
      "l oh",
      "o ̍p",
      "p ín",
      "t āⁿ",
      "ts īⁿ",
      "tsi lâi",
      "si p",
      "ti ò",
      "ki ān",
      "Si âng",
      "Si al",
      "Si lemiah",
      "th íng",
      "th ûn",
      "tshi ok",
      "ko uah",
      "tsh o̍p",
      "li âng",
      "tshu àn",
      "tsu ah",
      "thi ann",
      "Ts áu",
      "Ts hong",
      "siū nn",
      "ô͘ bal",
      "pi án",
      "khi p",
      "khi àu",
      "sè a",
      "thu ̍t",
      "Ti âⁿ",
      "phi ò",
      "Tshi ú",
      "Tshi ng",
      "Tshi ùⁿ",
      "Th ô͘bal",
      "Sī m",
      "Tu âⁿ",
      "Eli hu",
      "pō e",
      "Me git",
      "Tsh òng",
      "huā nn",
      "kho ol",
      "Hô sèa",
      "iū nn",
      "Nám á",
      "Malki iah",
      "The kouah",
      "Bal tsilâi",
      "Ak sa̍h",
      "Bik lih",
      "Megit óng",
      "1 0",
      "2 1",
      "B û",
      "G ō͘",
      "H îng",
      "I ail",
      "K é",
      "K íng",
      "K uáⁿ",
      "L î",
      "L ō͘",
      "M î",
      "P àng",
      "P hue",
      "T ê",
      "T a̍t",
      "T el",
      "g o̍k",
      "h a̍t",
      "h el",
      "k ùn",
      "l à",
      "m a",
      "p ōng",
      "p inn",
      "s o͘",
      "t ùn",
      "ê ⁿ",
      "ê nn",
      "Ǹ g",
      "tsi nn",
      "si áu",
      "kh at",
      "ki ok",
      "ki uⁿ",
      "Si ng",
      "th áng",
      "tsh í",
      "tsh àn",
      "tsh ún",
      "tsu l",
      "mi ̍k",
      "Ts ó",
      "Ts a̍k",
      "Ts ín",
      "Ts ún",
      "bi ân",
      "pu é",
      "tsí m",
      "Ki at",
      "ke tah",
      "phu a̍h",
      "Tsi p",
      "bu t",
      "thu el",
      "Hu é",
      "lu â",
      "to p",
      "Ti ong",
      "Ti àm",
      "Hi àn",
      "Pi ⁿ",
      "Th ó͘",
      "Th ài",
      "Le mi̍k",
      "tsal el",
      "Ph a",
      "Mi l",
      "Ne bó",
      "Be thuel",
      "Be tsalel",
      "Se ⁿ",
      "ani h",
      "sia am",
      "Han anih",
      "It thai",
      "Khu àⁿ",
      "El náthan",
      "Lù tsuh",
      "Kit thê",
      "Ma̍k ketah",
      "te ⁿ",
      "Tshe ⁿ",
      "Bil ha̍h",
      "Pen uel",
      "tiu nn",
      ". '",
      "A kan",
      "A lio̍k",
      "B ú",
      "B âi",
      "G ô",
      "G âu",
      "H ōng",
      "J ī",
      "K è",
      "K āng",
      "K au",
      "L ai",
      "L BK",
      "M ó͘",
      "N â",
      "P ò",
      "P ún",
      "S o",
      "T án",
      "T siú",
      "T ńg",
      "T ol",
      "T huân",
      "U ē",
      "h o̍h",
      "i a̍t",
      "i oh",
      "i a̍p",
      "k ê",
      "k âu",
      "l ò",
      "l ō",
      "l ū",
      "m o͘h",
      "n è",
      "n áu",
      "n āu",
      "p at",
      "p ol",
      "s ah",
      "s el",
      "s ńg",
      "t el",
      "Ú n",
      "é kiah",
      "tsi at",
      "tsi an",
      "tsi a̍t",
      "si ap",
      "hu al",
      "hu lah",
      "ti û",
      "ki h",
      "ki ū",
      "ki a̍t",
      "Si me",
      "tu h",
      "th ak",
      "án a",
      "tsh ńg",
      "li óng",
      "thi án",
      "mi el",
      "Ts āi",
      "Ts hun",
      "Ts huì",
      "ph ông",
      "lī at",
      "khi m",
      "khi at",
      "pu a̍t",
      "pu ànn",
      "tsí ⁿ",
      "Ki aⁿ",
      "Tsi a",
      "Tsi ap",
      "lu é",
      "to l",
      "Ti ng",
      "Hi ān",
      "tsá inn",
      "Thi āu",
      "Tshi ū",
      "Th o͘",
      "Ph û",
      "than el",
      "io t",
      "Na thanel",
      "Li a̍h",
      "khia p",
      "Abi etsel",
      "Tsh a̍t",
      "Tsh am",
      "Al kih",
      "O͘ hulah",
      "Bel ékiah",
      "Kh ó͘",
      "Má thài",
      "the ⁿ",
      "Go līat",
      "Ng á",
      "khá el",
      "Mî kháel",
      "Lai si",
      ") ;",
      "1 5",
      "2 2",
      "3 2",
      "A G",
      "A iah",
      "B u",
      "B ê",
      "B ó͘",
      "B an",
      "C S",
      "C AG",
      "E lóng",
      "E bah",
      "E bal",
      "E biat",
      "H o̍k",
      "H ông",
      "H ok",
      "H a̍k",
      "H ak",
      "I p",
      "K ī",
      "K ū",
      "K uì",
      "K hui",
      "L ām",
      "L iáu",
      "M el",
      "M n̄g",
      "N ai",
      "O k",
      "O t",
      "P ó͘",
      "P án",
      "P a̍t",
      "P hok",
      "S īn",
      "S ò͘",
      "S uan",
      "T à",
      "T it",
      "T âng",
      "U ân",
      "e tá",
      "g ē",
      "h an",
      "h àm",
      "h al",
      "l ái",
      "l pah",
      "m í",
      "m ō͘",
      "m eh",
      "n án",
      "n a̍h",
      "p in",
      "p ìn",
      "s o",
      "s ang",
      "u aⁿ",
      "Î m",
      "Î ng",
      "á inn",
      "ā nn",
      "Ν o͘",
      "ⁿ h",
      "ts ā",
      "hu nî",
      "ti m",
      "ti at",
      "kh īng",
      "ki àⁿ",
      "tshi án",
      "khì ng",
      "āi ⁿ",
      "só͘ po",
      "ka nn",
      "khu ê",
      "tsh ê",
      "li āng",
      "tè ⁿ",
      "thi ò",
      "Ts huē",
      "ph au",
      "ph áinn",
      "la m",
      "gi ú",
      "tsè ⁿ",
      "hó m",
      "Ki ông",
      "Ki an",
      "ni ū",
      "ni áu",
      "ni el",
      "phu ah",
      "má liel",
      "Ti ̍t",
      "Ti ̍k",
      "Thi h",
      "ta miah",
      "Gi p",
      "Th àu",
      "Th àn",
      "Th al",
      "He gái",
      "Ph o",
      "Ha sia",
      "inn ah",
      "Be tsik",
      "Elí etsel",
      "ho ol",
      "Ham etá",
      "Ji lpah",
      "Sia huat",
      "thái m",
      "Ku ah",
      "Ku aⁿ",
      "Ahi no",
      "Khu ài",
      "Utsi el",
      "Ho hunî",
      "Gâ máliel",
      "Hāi ⁿ",
      "Bil tat",
      "Pen innah",
      "Ng ó͘",
      "Nim sī",
      "Mê só͘po",
      "Ban ah",
      "CS K",
      "Ot niel",
      "Sīn al",
      "Νo͘ p",
      "phau h",
      "Hasia biah",
      "Hametá tha",
      "Ahino ám",
      "Mêsó͘po tamiah",
      "' ;",
      "1 4",
      "1 8",
      "1 9",
      "2 3",
      "3 1",
      "A tsu",
      "A pí",
      "B íng",
      "E h",
      "E m",
      "E nn",
      "G ela̍h",
      "H S",
      "H in",
      "H o͘",
      "H al",
      "I ông",
      "K hi",
      "K uī",
      "K áu",
      "K āu",
      "K hia",
      "K âng",
      "K uân",
      "L o",
      "L o̍k",
      "N ô͘",
      "P e̍h",
      "P âi",
      "P am",
      "S îng",
      "S ûn",
      "S BK",
      "T ō",
      "T ah",
      "T o̍h",
      "T an",
      "T n̂g",
      "T oh",
      "T o͘",
      "T hiann",
      "U an",
      "a sa̍h",
      "b ân",
      "b ol",
      "g o",
      "g uī",
      "g el",
      "g ok",
      "h ám",
      "j uh",
      "k ô",
      "k âⁿ",
      "l á",
      "m ān",
      "n a̍t",
      "p û",
      "p uī",
      "t ám",
      "u à",
      "u àⁿ",
      "é siah",
      "ì ⁿ",
      "Τ hu",
      "Τ hang",
      "） ;",
      "ts o",
      "ts án",
      "ts ǹg",
      "tsi ⁿ",
      "tsi ân",
      "tsi a̍p",
      "tsi ûⁿ",
      "si ai",
      "si ba",
      "hu ̍t",
      "ti o",
      "ti ânn",
      "uá i",
      "kh o̍k",
      "kh a̍h",
      "kh âm",
      "kh înn",
      "ki nn",
      "Si t",
      "Si á",
      "Si ó",
      "Si ā",
      "Si aⁿ",
      "Si ông",
      "Si ám",
      "Si am",
      "tu ânn",
      "th o",
      "tshi â",
      "ku e",
      "tsh ó͘",
      "tshu é",
      "ji àu",
      "ji âu",
      "tsa ̍t",
      "thi óng",
      "Ts é",
      "Ts û",
      "Ts hia",
      "Ts au",
      "ph ok",
      "la l",
      "ám el",
      "tsì m",
      "sa el",
      "khi a̍t",
      "pu ann",
      "lô am",
      "oh am",
      "ni l",
      "ni ám",
      "phu n",
      "phu ē",
      "Tsi ng",
      "Tsi àn",
      "ná juh",
      "bu at",
      "hí miah",
      "Hu n",
      "Hu í",
      "siu nn",
      "má liah",
      "Ti u",
      "pī ⁿ",
      "Hi lia̍t",
      "tsiu ⁿ",
      "Tshi m",
      "Gi â",
      "Pi àⁿ",
      "Th at",
      "Th ìng",
      "Th âi",
      "Ph e",
      "Ph ó͘",
      "Ph âu",
      "Mi sael",
      "me t",
      "hiaⁿ h",
      "Ná sòng",
      "Ha thak",
      "Elí asa̍h",
      "Se siba",
      "Ke nájuh",
      "ho͘ ⁿh",
      "Ge máliah",
      "Al bah",
      "Al go",
      "Ji ̍p",
      "Ap tóng",
      "Sim siai",
      "Hô pa",
      "Pe tái",
      "Má lûn",
      "Mal ésiah",
      "Han ámel",
      "El oham",
      "Lù t",
      "Nî hímiah",
      "Ak bol",
      "hó͘ nn",
      "Mil kah",
      "So khuat",
      "Sime ah",
      "Apí lôam",
      "Khia m",
      "Sesiba tsal",
      "Algo p",
      "Petái ah",
      "2 9",
      "? .",
      "A tah",
      "A hí",
      "A ta",
      "A hioh",
      "B áu",
      "B a̍t",
      "B iáu",
      "E E",
      "E bi",
      "G ê",
      "G ol",
      "H ā",
      "H uán",
      "H n̄g",
      "H o͘h",
      "I ū",
      "I àn",
      "I au",
      "I al",
      "J iok",
      "K á",
      "K at",
      "K hong",
      "K hòng",
      "K ha",
      "K uái",
      "L ông",
      "L ūn",
      "M o͘",
      "M EE",
      "O hui",
      "O nán",
      "P ō͘",
      "P ang",
      "P ò͘",
      "P ûn",
      "P au",
      "S uá",
      "T é",
      "T ò",
      "T îng",
      "T huat",
      "T ap",
      "T âi",
      "T hái",
      "U í",
      "U î",
      "b ím",
      "e mo͘t",
      "g ó",
      "g uē",
      "h ài",
      "h ai",
      "i āⁿ",
      "j u",
      "l el",
      "m è",
      "m al",
      "n at",
      "p ú",
      "p hō͘",
      "s n̂g",
      "u tal",
      "é tsel",
      "ō a",
      "Μ ā",
      "ts ái",
      "ng á",
      "ng iáu",
      "tsi à",
      "hi p",
      "hi u",
      "hi àⁿ",
      "si ⁿ",
      "ti n",
      "ti a̍t",
      "kh ap",
      "ki ō",
      "Si ang",
      "Si kan",
      "Si lu",
      "tu n",
      "tu ̍t",
      "th ám",
      "tshi h",
      "tshi âⁿ",
      "tshi ám",
      "su i",
      "su ān",
      "su àn",
      "ka hia",
      "khu l",
      "khu n",
      "tsh ū",
      "tsh îng",
      "tsh ōa",
      "li ap",
      "tsa huán",
      "thi ām",
      "thi âu",
      "mi t",
      "Ts eh",
      "Ts ìn",
      "ph at",
      "gi án",
      "gi el",
      "iû nn",
      "se nn",
      "khi ang",
      "ann etsel",
      "Ki k",
      "Ki ong",
      "Ki ánn",
      "ni au",
      "kau h",
      "phu ānn",
      "Tsi ù",
      "Tsi ̍p",
      "Tsi ok",
      "ná tat",
      "Hu at",
      "Hu ann",
      "lu ā",
      "Ba lak",
      "Ti ū",
      "Ti ōng",
      "Hi a",
      "Hi ̍k",
      "Hi ong",
      "Am mí",
      "phi a̍t",
      "khuì ⁿ",
      "khuì nn",
      "thè ⁿ",
      "Tshi ong",
      "Tshi an",
      "Pi kol",
      "Th òng",
      "Th au",
      "mu t",
      "mu kan",
      "tí m",
      "An el",
      "He nátat",
      "ol ám",
      "Ph âng",
      "Ph o͘",
      "me li̍k",
      "Su ah",
      "Eli tsul",
      "Eli tsahuán",
      "Tsu â",
      "Ham utal",
      "Pu e̍h",
      "Me li̍k",
      "Me mukan",
      "Tsh ì",
      "Tsh âi",
      "Tsh ìn",
      "be thài",
      "ko͘ t",
      "Sia bethài",
      "O͘ tiat",
      "Bel ī",
      "Pe kahia",
      "Kh ò",
      "Kh ang",
      "So͘ koh",
      "Mal kam",
      "Ahi lu̍t",
      "Ahi la̍h",
      "tán iah",
      "Ato lam",
      "Hat olám",
      "Sal èm",
      "Ho sah",
      "Lu ̍h",
      "Thê pín",
      "Im mel",
      "Mat than",
      "Mat tániah",
      "Tô í",
      "Nim lo͘t",
      "11 8",
      "Sial étsel",
      "Tshiú ⁿ",
      "Pha giel",
      "tel 8",
      "Hak git",
      "Ip tsàn",
      "Mel emo͘t",
      "Thal thàn",
      "HS A",
      "To͘ la̍h",
      "Siaⁿ mah",
      "Ahí etsel",
      "Ata iah",
      "Ebi annetsel",
      "Kat miel",
      "Tap pú",
      "hài ⁿ",
      "Sikan iah",
      "Silu miel",
      "Balak hiah",
      "Ammí el",
      "Pekahia p",
      "Atolam meli̍k",
      "Thêpín î",
      "Tappú ah",
      "! .",
      "' (",
      ", .",
      "0 0",
      "1 2",
      "1 7",
      "2 0",
      "2 7",
      "2 8",
      "3 0",
      "3 3",
      "3 4",
      "4 5",
      "5 2",
      "6 5",
      "; ,",
      "A R",
      "A sa",
      "A tik",
      "B ah",
      "B án",
      "B îng",
      "B ong",
      "B īng",
      "B ua̍t",
      "B inn",
      "E K",
      "E L",
      "E S",
      "E sit",
      "E thán",
      "G în",
      "G iân",
      "G ióng",
      "H ì",
      "H ô͘",
      "H ām",
      "H au",
      "H a̍p",
      "H īⁿ",
      "H ò͘ⁿ",
      "H īnn",
      "I à",
      "I ân",
      "I li",
      "I lī",
      "J īn",
      "J ua̍h",
      "J ím",
      "K à",
      "K í",
      "K īn",
      "K àng",
      "K àm",
      "K ap",
      "K áng",
      "L O",
      "L ó͘",
      "L iû",
      "L uân",
      "L iù",
      "L i̍k",
      "M û",
      "M ài",
      "N o",
      "O ng",
      "O Ol",
      "P ì",
      "P hu",
      "P ong",
      "P ān",
      "P el",
      "P ài",
      "P it",
      "P ua̍h",
      "P hō",
      "P ela",
      "P êⁿ",
      "P AR",
      "S â",
      "S ó",
      "S án",
      "S ái",
      "S ap",
      "S ann",
      "T ông",
      "T ān",
      "T ô͘",
      "T siâⁿ",
      "T hok",
      "T siūⁿ",
      "T iánn",
      "T EK",
      "U āⁿ",
      "X 2",
      "a ka",
      "a tiah",
      "b ún",
      "b o͘",
      "e mo͘h",
      "g íng",
      "h ân",
      "h ail",
      "i p",
      "i âu",
      "k el",
      "k âm",
      "l û",
      "l ang",
      "l òng",
      "l àng",
      "l ìn",
      "m o",
      "m â",
      "m ̂",
      "m at",
      "m ong",
      "m òng",
      "m uî",
      "m ool",
      "n ô͘",
      "n o͘t",
      "p ng",
      "s à",
      "s àm",
      "t ù",
      "t ān",
      "t àm",
      "u s",
      "ú ⁿ",
      "̍ ͘",
      "̍ khap",
      "Β ô",
      "Β ān",
      "Ν 7",
      "Τ uà",
      "） （",
      "ts ī",
      "tsi l",
      "tsi âu",
      "si āng",
      "hu ela̍h",
      "hu met",
      "ti ō",
      "ti oh",
      "ti ānn",
      "ti huela̍h",
      "kh ōng",
      "ki òng",
      "ki oh",
      "lí m",
      "Si l",
      "Si ān",
      "Si ló",
      "Si bé",
      "Si hua",
      "Si ūⁿ",
      "tu at",
      "tu ann",
      "tu sih",
      "sī tshú",
      "tshi àu",
      "tshi àm",
      "tshi âng",
      "tshi āng",
      "nn h",
      "ko tsuh",
      "ku p",
      "ku āi",
      "tsh á",
      "li t",
      "li an",
      "li ám",
      "tshu an",
      "at ah",
      "ji ō",
      "ji ̍h",
      "tsu āⁿ",
      "an ak",
      "tsa u",
      "mi óng",
      "mi ̍t",
      "Ts G",
      "Ts ân",
      "Ts ok",
      "Ts íng",
      "Ts hiah",
      "Ts oh",
      "Ts âi",
      "Ts hú",
      "Ts éⁿ",
      "ph óng",
      "ph ǹg",
      "ph n̄g",
      "pi o",
      "thâ m",
      "se am",
      "pu ik",
      "oh án",
      "Ki à",
      "Ki àm",
      "ni ām",
      "Ta m",
      "phu e̍h",
      "Tsi o̍h",
      "Tsi áu",
      "bu eh",
      "thu t",
      "Hu āⁿ",
      "lé m",
      "siu p",
      "Ti āⁿ",
      "Ti ām",
      "Ti au",
      "Ti úⁿ",
      "Ti ̍khap",
      "Hi aⁿ",
      "tsiu Ν7",
      "Thi u",
      "tha hiah",
      "Bi ̍t",
      "Tshi ûⁿ",
      "Gi a̍t",
      "Pi ān",
      "Pi a̍t",
      "Th a̍k",
      "Th àm",
      "Th ǹg",
      "Th áng",
      "Th anak",
      "Ph àⁿ",
      "Ph ak",
      "Ph ohán",
      "Mi â",
      "Tsì ⁿ",
      "Tsì nn",
      "Ne bái",
      "ké m",
      "bí la̍h",
      "Sa bi̍t",
      "Ha bíla̍h",
      "Su a",
      "Su í",
      "Eli atah",
      "lo m",
      "bo ̍͘",
      "kuái ⁿ",
      "Li án",
      "Li ̍p",
      "Li âm",
      "Pu e",
      "Me siah",
      "ho͘ p",
      "ho͘ nnh",
      "Tsh īng",
      "Tsh au",
      "be t",
      "Ge nu",
      "Al bua̍t",
      "Ji a",
      "Ji a̍t",
      "Ga̍t tí",
      "Aha tsái",
      "Sim lī",
      "Ku à",
      "Ku ̍t",
      "Bel aka",
      "Pe thahiah",
      "Tsá inn",
      "Kh ah",
      "Kh îm",
      "Kh ak",
      "To u",
      "To kal",
      "tsê nn",
      "pe ⁿ",
      "Ato lâm",
      "Hat tusih",
      "Hat kotsuh",
      "Sal má",
      "Atsa liah",
      "El han",
      "Go p",
      "Go mel",
      "Atonî lâm",
      "At mah",
      "Thê má",
      "kiu ̍h",
      "Bí ta̍t",
      "Tik bah",
      "SI N",
      "Ama líah",
      "Hol tah",
      "man sel",
      "Bik thàn",
      ".. ..",
      "Sial mansel",
      "Sime at",
      "Hak mo",
      "lái m",
      "Pho tihuela̍h",
      "Atsu bah",
      "Khi â",
      "Tan humet",
      "Siam gal",
      "Phó͘ la̍h",
      "hai ⁿ",
      "ju ā",
      "Asa iah",
      "Atik lia̍t",
      "Binn uí",
      "Esit emo͘h",
      "Ili iah",
      "Ilī ta̍t",
      "No atiah",
      "Pel e",
      "Pela tiah",
      "PAR SIN",
      "TEK EL",
      "Siló mi̍t",
      "Sibé kai",
      "Sihua tiah",
      "Ti̍khap ka",
      "Nebái ot",
      "bo̍͘ t",
      "Genu bat",
      "Tokal mah",
      "Elhan an",
      "Hakmo nih",
      "! '",
      "! ,",
      "' （",
      ", :",
      ". !",
      ". )",
      ". ,",
      ". ）,",
      "/ ,",
      "1 16",
      "2 4",
      "2 5",
      "2 6",
      "3 5",
      "3 6",
      "4 0",
      "4 2",
      "4 3",
      "4 4",
      "4 7",
      "5 1",
      "5 3",
      "5 9",
      "6 6",
      "6 9",
      "7 2",
      "7 3",
      "7 7",
      "8 9",
      "9 7",
      "= .",
      "A u",
      "A ng",
      "A hu",
      "A tí",
      "A gú",
      "B â",
      "B ó",
      "B ōng",
      "B uē",
      "B uán",
      "B āng",
      "B ak",
      "B un",
      "C y",
      "D a",
      "E R",
      "E g",
      "E tsel",
      "G í",
      "G a̍h",
      "G ô͘",
      "G it",
      "G a̍k",
      "G o͘",
      "G al",
      "G im",
      "H P",
      "H í",
      "H î",
      "H û",
      "H ē",
      "H ō",
      "H āu",
      "H òng",
      "H ūn",
      "H âng",
      "H im",
      "H ai",
      "I L",
      "I at",
      "I ap",
      "I thé",
      "I ES",
      "J e",
      "J iáu",
      "J iám",
      "J io̍k",
      "K Ó",
      "K ò",
      "K ù",
      "K ông",
      "K ài",
      "K ái",
      "K òng",
      "K o͘",
      "K huan",
      "K hún",
      "K huì",
      "K ho",
      "K hî",
      "K hīng",
      "K ìm",
      "L T",
      "L é",
      "L ê",
      "L ah",
      "L o̍h",
      "L áu",
      "L uán",
      "L a̍p",
      "L iông",
      "M t",
      "M u",
      "M ú",
      "M ē",
      "M uá",
      "M it",
      "M ua",
      "N iû",
      "N ̂g",
      "N o͘",
      "N um",
      "N HS",
      "N 77",
      "O ̍h",
      "O sun",
      "P à",
      "P á",
      "P é",
      "P î",
      "P û",
      "P ō",
      "P ah",
      "P o̍h",
      "P at",
      "P íng",
      "P a̍k",
      "P o͘",
      "P n̄g",
      "P iah",
      "P ìn",
      "P uî",
      "P iáu",
      "P hûn",
      "P huê",
      "P huà",
      "P hian",
      "P ER",
      "S ò",
      "S ú",
      "S ong",
      "S ok",
      "S ūn",
      "S e̍h",
      "S ǹg",
      "S au",
      "T è",
      "T ā",
      "T àu",
      "T só͘",
      "T în",
      "T a̍h",
      "T īng",
      "T ok",
      "T àng",
      "T hó",
      "T ann",
      "T ām",
      "T ún",
      "T îm",
      "T hí",
      "T hūn",
      "T hîng",
      "T âm",
      "T sīng",
      "T huî",
      "T hiau",
      "U i",
      "U l",
      "U án",
      "U tsài",
      "U liel",
      "U PARSIN",
      "W ah",
      "Z e",
      "] )",
      "] ,",
      "a b",
      "b â",
      "b ù",
      "b âng",
      "b ap",
      "b ua̍h",
      "b áng",
      "c te",
      "e b",
      "g é",
      "g ô",
      "g óng",
      "g at",
      "g ān",
      "g ò͘",
      "g òng",
      "g ol",
      "g o͘k",
      "h à",
      "h è",
      "h ê",
      "h ìng",
      "h ak",
      "h ol",
      "i ong",
      "i a̍h",
      "i sa",
      "i àm",
      "j îm",
      "k àn",
      "l ù",
      "l ā",
      "l ìng",
      "l o͘",
      "l ùn",
      "m à",
      "m ù",
      "m ín",
      "m oh",
      "m ím",
      "n y",
      "n ê",
      "n ú",
      "n uá",
      "n óng",
      "n an",
      "n ò͘",
      "n ǹg",
      "n am",
      "n ai",
      "n ím",
      "n uāⁿ",
      "o ny",
      "p r",
      "p ai",
      "r me",
      "s ām",
      "s ta",
      "t ai",
      "t bah",
      "u ê",
      "u ànn",
      "Í n",
      "Í lī",
      "Ò ͘",
      "à t",
      "à ê",
      "á k",
      "è ⁿ",
      "é ng",
      "í nn",
      "Ā m",
      "Ū n",
      "Α ū",
      "Β eh",
      "Β ián",
      "Τ ú",
      "Τ a̍k",
      "Τ hìng",
      "」 ）;",
      "合 香",
      "松 香",
      "棑 tī",
      "白 松香",
      "蘇 合香",
      "香 螺",
      "） !",
      "） ?",
      "） 」",
      "） ],",
      "ts uá",
      "ts n̂g",
      "ts àm",
      "ts n̄g",
      "ts uánn",
      "ng âu",
      "ng iau",
      "tsi au",
      "hi ō",
      "hi ̍t",
      "hi ang",
      "hi ūⁿ",
      "hi àt",
      "si āu",
      "si phah",
      "si al",
      "si thah",
      "si lemiah",
      "hu sithah",
      "ti ̍h",
      "ti àⁿ",
      "ti ok",
      "ti ànn",
      "ti am",
      "kh î",
      "kh ù",
      "kh ī",
      "kh ái",
      "kh àng",
      "ki ú",
      "ki âu",
      "Si k",
      "Si p",
      "Si à",
      "Si án",
      "Si ̍p",
      "Si ong",
      "Si ok",
      "Si āng",
      "tu í",
      "th á",
      "th û",
      "th o̍k",
      "th īⁿ",
      "th īnn",
      "sī ⁿ",
      "sī saⁿ",
      "sī si̍t",
      "sī suàn",
      "tshi àng",
      "su ân",
      "ko ân",
      "khu è",
      "khu aⁿ",
      "khu áⁿ",
      "tsh ang",
      "tsh ok",
      "li su",
      "li at",
      "li kam",
      "li ab",
      "tshu ân",
      "ji áng",
      "tsu a̍h",
      "tsu āiⁿ",
      "an iah",
      "tsa m",
      "thi k",
      "thi m",
      "thi ú",
      "thi òng",
      "Ts ng",
      "Ts at",
      "Ts o̍k",
      "Ts hîng",
      "Ts hui",
      "Ts hat",
      "Ts hî",
      "Ts ho͘",
      "ph í",
      "ph ū",
      "ph oh",
      "ph e̍h",
      "ph al",
      "la i",
      "tē nn",
      "bi âu",
      "sî m",
      "pi h",
      "pi m",
      "pi ̍t",
      "pi a̍k",
      "pi èⁿ",
      "ne m",
      "gi l",
      "gi m",
      "gi o̍h",
      "gi an",
      "tuā nn",
      "gu p",
      "sa huat",
      "se a",
      "se p",
      "se ná",
      "khi h",
      "khi ām",
      "siú m",
      "lô mā",
      "ap al",
      "kha l",
      "Ki áu",
      "kî nn",
      "phu k",
      "phu ànn",
      "Tsi ông",
      "Tsi an",
      "bu k",
      "tì n",
      "tshe nn",
      "Io tbah",
      "lông ê",
      "thu áⁿ",
      "thu ān",
      "Hu eh",
      "Hu aⁿ",
      "Hu ân",
      "Hu an",
      "Hu âi",
      "lu p",
      "lu tsuh",
      "al a̍t",
      "to ol",
      "ló i",
      "ló m",
      "hô m",
      "siu le",
      "Ba uái",
      "Ba lisu",
      "Ti p",
      "Ti ō",
      "Ti áⁿ",
      "Ti an",
      "Ti ám",
      "Ti ūⁿ",
      "siong à",
      "pí ⁿ",
      "Hi k",
      "Hi ng",
      "Hi án",
      "Hi ân",
      "Hi an",
      "Hi el",
      "Hi uⁿ",
      "tsiu N77",
      "la̍h thê",
      "Gu l",
      "Gu e̍h",
      "li̍k ê",
      "phi at",
      "phi âⁿ",
      "sú i",
      "Tshi k",
      "Tshi at",
      "Tshi àⁿ",
      "Tshi ūⁿ",
      "kí m",
      "Gi siphah",
      "Pi àn",
      "Th é",
      "Th ò",
      "Th áu",
      "Th el",
      "Th ò͘",
      "Th àng",
      "Sī bí",
      "Tu i",
      "mu l",
      "An aniah",
      "He rme",
      "Ph ò",
      "Ph ang",
      "Ph ô͘",
      "Ph òng",
      "Ph al",
      "le tat",
      "Mi g",
      "Mi ̍h",
      "Ne husithah",
      "Ha siup",
      "Ha lutsuh",
      "Su e",
      "Su l",
      "Su àⁿ",
      "Pa sea",
      "lo i",
      "Ga sîm",
      "iau kah",
      "Li āu",
      "Li am",
      "Li a̍p",
      "Pu àⁿ",
      "Me silemiah",
      "Me siule",
      "ho͘ t",
      "Amô͘ nî",
      "ui ̍h",
      "Pí lân",
      "Tsh ò",
      "Tsh ī",
      "Tsh oh",
      "Tsh énn",
      "phì m",
      "phì nn",
      "Al ûn",
      "lê m",
      "lê ng",
      "Ap tah",
      "O͘ bil",
      "O͘ liab",
      "gal ban",
      "nu à",
      "Ku a",
      "Ku t",
      "Ku at",
      "Hô lân",
      "Hô hâm",
      "Kh óng",
      "Kh an",
      "Kh àm",
      "Kh ǹg",
      "Kh ai",
      "Mal ta",
      "Ahi suah",
      "Kì nn",
      "no ol",
      "Khu àn",
      "Hat a̍t",
      "Sal góng",
      "Siú ⁿ",
      "At nah",
      "mé n",
      "Etsu lī",
      "Siu phìm",
      "Bí la̍hthê",
      "Ni p",
      "kán a",
      "Im nah",
      "Mik lot",
      "Hap sená",
      "11 5",
      "La mih",
      "Mah ala̍t",
      "Ta̍t mái",
      "ma bet",
      "tiû nn",
      "Bu â",
      "Atsu likam",
      "Atsu mabet",
      "Sit lái",
      "tho m",
      "ju ê",
      "00 0",
      "LO H",
      "LO S",
      "Phu àⁿ",
      "Phàⁿ thê",
      "Phàⁿ thiat",
      "Ahu tsa̍t",
      "Atí lô",
      "Agú l",
      "Cy pr",
      "HP K",
      "Hai ⁿh",
      "IL M",
      "Ithé el",
      "KÓ ng",
      "Kho lē",
      "Khî ⁿ",
      "LT S",
      "Mit letat",
      "Osun apal",
      "PER ES",
      "Sok pí",
      "Sau isa",
      "Tā k",
      "Ze us",
      "nai h",
      "ony tsa",
      "sta cte",
      "Ílī sahuat",
      "ngiau h",
      "Sībí lī",
      "Herme s",
      "Mesiule met",
      "galban um",
      "Cypr us"
    ]
  }
}